{
  "version": "1.0",
  "truncation": null,
  "padding": null,
  "added_tokens": [
    {
      "id": 0,
      "content": "<s>",
      "single_word": false,
      "lstrip": false,
      "rstrip": false,
      "normalized": true,
      "special": true
    },
    {
      "id": 1,
      "content": "<pad>",
      "single_word": false,
      "lstrip": false,
      "rstrip": false,
      "normalized": true,
      "special": true
    },
    {
      "id": 2,
      "content": "</s>",
      "single_word": false,
      "lstrip": false,
      "rstrip": false,
      "normalized": true,
      "special": true
    },
    {
      "id": 3,
      "content": "<unk>",
      "single_word": false,
      "lstrip": false,
      "rstrip": false,
      "normalized": true,
      "special": true
    },
    {
      "id": 50000,
      "content": "<mask>",
      "single_word": false,
      "lstrip": true,
      "rstrip": false,
      "normalized": false,
      "special": true
    }
  ],
  "normalizer": null,
  "pre_tokenizer": {
    "type": "ByteLevel",
    "add_prefix_space": false,
    "trim_offsets": true,
    "use_regex": true
  },
  "post_processor": {
    "type": "RobertaProcessing",
    "sep": [
      "</s>",
      2
    ],
    "cls": [
      "<s>",
      0
    ],
    "trim_offsets": true,
    "add_prefix_space": false
  },
  "decoder": {
    "type": "ByteLevel",
    "add_prefix_space": true,
    "trim_offsets": true,
    "use_regex": true
  },
  "model": {
    "type": "BPE",
    "dropout": null,
    "unk_token": null,
    "continuing_subword_prefix": "",
    "end_of_word_suffix": "",
    "fuse_unk": false,
    "byte_fallback": false,
    "ignore_merges": false,
    "vocab": {
      "<s>": 0,
      "<pad>": 1,
      "</s>": 2,
      "<unk>": 3,
      "!": 4,
      "\"": 5,
      "#": 6,
      "$": 7,
      "%": 8,
      "&": 9,
      "'": 10,
      "(": 11,
      ")": 12,
      "*": 13,
      "+": 14,
      ",": 15,
      "-": 16,
      ".": 17,
      "/": 18,
      "0": 19,
      "1": 20,
      "2": 21,
      "3": 22,
      "4": 23,
      "5": 24,
      "6": 25,
      "7": 26,
      "8": 27,
      "9": 28,
      ":": 29,
      ";": 30,
      "<": 31,
      "=": 32,
      ">": 33,
      "?": 34,
      "@": 35,
      "A": 36,
      "B": 37,
      "C": 38,
      "D": 39,
      "E": 40,
      "F": 41,
      "G": 42,
      "H": 43,
      "I": 44,
      "J": 45,
      "K": 46,
      "L": 47,
      "M": 48,
      "N": 49,
      "O": 50,
      "P": 51,
      "Q": 52,
      "R": 53,
      "S": 54,
      "T": 55,
      "U": 56,
      "V": 57,
      "W": 58,
      "X": 59,
      "Y": 60,
      "Z": 61,
      "[": 62,
      "\\": 63,
      "]": 64,
      "^": 65,
      "_": 66,
      "`": 67,
      "a": 68,
      "b": 69,
      "c": 70,
      "d": 71,
      "e": 72,
      "f": 73,
      "g": 74,
      "h": 75,
      "i": 76,
      "j": 77,
      "k": 78,
      "l": 79,
      "m": 80,
      "n": 81,
      "o": 82,
      "p": 83,
      "q": 84,
      "r": 85,
      "s": 86,
      "t": 87,
      "u": 88,
      "v": 89,
      "w": 90,
      "x": 91,
      "y": 92,
      "z": 93,
      "{": 94,
      "|": 95,
      "}": 96,
      "~": 97,
      "¡": 98,
      "¢": 99,
      "£": 100,
      "¤": 101,
      "¥": 102,
      "¦": 103,
      "§": 104,
      "¨": 105,
      "©": 106,
      "ª": 107,
      "«": 108,
      "¬": 109,
      "®": 110,
      "¯": 111,
      "°": 112,
      "±": 113,
      "²": 114,
      "³": 115,
      "´": 116,
      "µ": 117,
      "¶": 118,
      "·": 119,
      "¸": 120,
      "¹": 121,
      "º": 122,
      "»": 123,
      "¼": 124,
      "½": 125,
      "¾": 126,
      "¿": 127,
      "À": 128,
      "Á": 129,
      "Â": 130,
      "Ã": 131,
      "Ä": 132,
      "Å": 133,
      "Æ": 134,
      "Ç": 135,
      "È": 136,
      "É": 137,
      "Ê": 138,
      "Ë": 139,
      "Ì": 140,
      "Í": 141,
      "Î": 142,
      "Ï": 143,
      "Ð": 144,
      "Ñ": 145,
      "Ò": 146,
      "Ó": 147,
      "Ô": 148,
      "Õ": 149,
      "Ö": 150,
      "×": 151,
      "Ø": 152,
      "Ù": 153,
      "Ú": 154,
      "Û": 155,
      "Ü": 156,
      "Ý": 157,
      "Þ": 158,
      "ß": 159,
      "à": 160,
      "á": 161,
      "â": 162,
      "ã": 163,
      "ä": 164,
      "å": 165,
      "æ": 166,
      "ç": 167,
      "è": 168,
      "é": 169,
      "ê": 170,
      "ë": 171,
      "ì": 172,
      "í": 173,
      "î": 174,
      "ï": 175,
      "ð": 176,
      "ñ": 177,
      "ò": 178,
      "ó": 179,
      "ô": 180,
      "õ": 181,
      "ö": 182,
      "÷": 183,
      "ø": 184,
      "ù": 185,
      "ú": 186,
      "û": 187,
      "ü": 188,
      "ý": 189,
      "þ": 190,
      "ÿ": 191,
      "Ā": 192,
      "ā": 193,
      "Ă": 194,
      "ă": 195,
      "Ą": 196,
      "ą": 197,
      "Ć": 198,
      "ć": 199,
      "Ĉ": 200,
      "ĉ": 201,
      "Ċ": 202,
      "ċ": 203,
      "Č": 204,
      "č": 205,
      "Ď": 206,
      "ď": 207,
      "Đ": 208,
      "đ": 209,
      "Ē": 210,
      "ē": 211,
      "Ĕ": 212,
      "ĕ": 213,
      "Ė": 214,
      "ė": 215,
      "Ę": 216,
      "ę": 217,
      "Ě": 218,
      "ě": 219,
      "Ĝ": 220,
      "ĝ": 221,
      "Ğ": 222,
      "ğ": 223,
      "Ġ": 224,
      "ġ": 225,
      "Ģ": 226,
      "ģ": 227,
      "Ĥ": 228,
      "ĥ": 229,
      "Ħ": 230,
      "ħ": 231,
      "Ĩ": 232,
      "ĩ": 233,
      "Ī": 234,
      "ī": 235,
      "Ĭ": 236,
      "ĭ": 237,
      "Į": 238,
      "į": 239,
      "İ": 240,
      "ı": 241,
      "Ĳ": 242,
      "ĳ": 243,
      "Ĵ": 244,
      "ĵ": 245,
      "Ķ": 246,
      "ķ": 247,
      "ĸ": 248,
      "Ĺ": 249,
      "ĺ": 250,
      "Ļ": 251,
      "ļ": 252,
      "Ľ": 253,
      "ľ": 254,
      "Ŀ": 255,
      "ŀ": 256,
      "Ł": 257,
      "ł": 258,
      "Ń": 259,
      "Ġt": 260,
      "Ġa": 261,
      "in": 262,
      "re": 263,
      "he": 264,
      "on": 265,
      "ti": 266,
      "en": 267,
      "Ġo": 268,
      "Ġs": 269,
      "Ġthe": 270,
      "er": 271,
      "ed": 272,
      "Ġc": 273,
      "al": 274,
      "Ġp": 275,
      "Ġin": 276,
      "Ġw": 277,
      "at": 278,
      "es": 279,
      "Ġan": 280,
      "Ġof": 281,
      "or": 282,
      "an": 283,
      "is": 284,
      "it": 285,
      "tion": 286,
      "ro": 287,
      "Ġf": 288,
      "Ġm": 289,
      "Ġand": 290,
      "Ġd": 291,
      "as": 292,
      "Ġb": 293,
      "ic": 294,
      "ar": 295,
      "ing": 296,
      "Ġre": 297,
      "ent": 298,
      "le": 299,
      "Ġe": 300,
      "Ġ(": 301,
      "Ġto": 302,
      "el": 303,
      "ation": 304,
      "ec": 305,
      "us": 306,
      "om": 307,
      "ul": 308,
      "Ġth": 309,
      "ac": 310,
      "Ġh": 311,
      "Ġn": 312,
      "ol": 313,
      "et": 314,
      "ere": 315,
      "os": 316,
      "Ġl": 317,
      "ur": 318,
      "ig": 319,
      "id": 320,
      "im": 321,
      "ith": 322,
      "ly": 323,
      "Ġwith": 324,
      "ve": 325,
      "Ġg": 326,
      "un": 327,
      "Ġst": 328,
      "Ġfor": 329,
      "ĠT": 330,
      "ot": 331,
      "Ġcon": 332,
      "ce": 333,
      "ter": 334,
      "res": 335,
      "Ġpro": 336,
      "il": 337,
      "ow": 338,
      "if": 339,
      "Ġas": 340,
      "ati": 341,
      "ut": 342,
      "Ġwas": 343,
      "âĢ": 344,
      "Ġis": 345,
      "am": 346,
      "Ġv": 347,
      "uc": 348,
      "ated": 349,
      "Ġ1": 350,
      "Ġex": 351,
      "Ġwere": 352,
      "um": 353,
      "od": 354,
      "ts": 355,
      "ra": 356,
      "st": 357,
      "Ġthat": 358,
      "ĠC": 359,
      "Ġal": 360,
      "oc": 361,
      "ĠA": 362,
      "Ġon": 363,
      "ity": 364,
      "Ġbe": 365,
      "ab": 366,
      "si": 367,
      "tic": 368,
      "Ġ2": 369,
      "ell": 370,
      "ment": 371,
      "ud": 372,
      "ate": 373,
      "ver": 374,
      "op": 375,
      "ĠS": 376,
      "ri": 377,
      ").": 378,
      "Ġcom": 379,
      "ir": 380,
      "ted": 381,
      "Ġby": 382,
      "Ġres": 383,
      "ag": 384,
      "ure": 385,
      "Ġac": 386,
      "ĠI": 387,
      "em": 388,
      "qu": 389,
      "up": 390,
      "rom": 391,
      "her": 392,
      "og": 393,
      "ĠP": 394,
      "ant": 395,
      "se": 396,
      "Ġor": 397,
      "Ġr": 398,
      "th": 399,
      "ay": 400,
      "ain": 401,
      "Ġus": 402,
      "ĠThe": 403,
      "Ġare": 404,
      "Ġat": 405,
      "ents": 406,
      "ical": 407,
      "vel": 408,
      "ĠM": 409,
      "di": 410,
      "pl": 411,
      "Ġde": 412,
      "ff": 413,
      "Ġfrom": 414,
      "ine": 415,
      "ad": 416,
      "00": 417,
      "Ġcell": 418,
      "Ġch": 419,
      "Ġ[": 420,
      "Ġcomp": 421,
      "ore": 422,
      "Ġinc": 423,
      "ase": 424,
      "ess": 425,
      "Ġim": 426,
      "ĠH": 427,
      "pec": 428,
      "Ġwh": 429,
      "und": 430,
      "Ġdis": 431,
      "The": 432,
      "Ġse": 433,
      "Ġsh": 434,
      "Ġstud": 435,
      "ub": 436,
      "ran": 437,
      "ĠF": 438,
      "igh": 439,
      "ign": 440,
      "ph": 441,
      "ies": 442,
      "sion": 443,
      "Ġcont": 444,
      "Ġper": 445,
      "ug": 446,
      "),": 447,
      "orm": 448,
      "iz": 449,
      "Ġad": 450,
      "por": 451,
      "duc": 452,
      "Ġpre": 453,
      "ific": 454,
      "Ġexp": 455,
      "Ġle": 456,
      "ĠD": 457,
      "Ġpati": 458,
      "Ġgen": 459,
      "te": 460,
      "ous": 461,
      "ations": 462,
      "Ġen": 463,
      "ĠB": 464,
      "Ġ3": 465,
      "ys": 466,
      "ers": 467,
      "ence": 468,
      "Ġne": 469,
      "Ġhe": 470,
      "are": 471,
      "tive": 472,
      "ĠR": 473,
      "yp": 474,
      "est": 475,
      "ĠN": 476,
      "iff": 477,
      "ĠE": 478,
      "Ġwe": 479,
      "eren": 480,
      "Ġnot": 481,
      "ion": 482,
      "ch": 483,
      "Ġass": 484,
      "tiv": 485,
      "Ġdiff": 486,
      "Ġco": 487,
      "ge": 488,
      "ist": 489,
      "âĢī": 490,
      "Ġthis": 491,
      "ip": 492,
      "ther": 493,
      "ich": 494,
      "Âł": 495,
      "Ġpatients": 496,
      "Ġsign": 497,
      "ved": 498,
      "lec": 499,
      "Ġcan": 500,
      "act": 501,
      "Ġgro": 502,
      "ap": 503,
      "ffec": 504,
      "vi": 505,
      "able": 506,
      "Ġint": 507,
      "Ġha": 508,
      "Ġcells": 509,
      "tions": 510,
      "ary": 511,
      "Ġinf": 512,
      "Ġdi": 513,
      "].": 514,
      "ib": 515,
      "ĠG": 516,
      "ding": 517,
      "Ġcl": 518,
      "Ġap": 519,
      "Ġpar": 520,
      "ally": 521,
      "Ġbet": 522,
      "age": 523,
      "ased": 524,
      "ance": 525,
      "Ġshow": 526,
      "we": 527,
      "ost": 528,
      "Ġdifferen": 529,
      "Ġwhich": 530,
      "ĠIn": 531,
      "enti": 532,
      "Ġsy": 533,
      "Ġstudy": 534,
      "Ġpl": 535,
      "rans": 536,
      "Ġit": 537,
      "and": 538,
      "ĠL": 539,
      "ors": 540,
      "Ġ0": 541,
      "Ġob": 542,
      "ular": 543,
      "olog": 544,
      "Ġ5": 545,
      "ia": 546,
      "Ġhave": 547,
      "Ġinter": 548,
      "ast": 549,
      "Ġ4": 550,
      "Ġab": 551,
      "Ġmet": 552,
      "reat": 553,
      "Ġanal": 554,
      "ial": 555,
      "pro": 556,
      "ear": 557,
      "Ġmod": 558,
      "ative": 559,
      "vid": 560,
      "ong": 561,
      "ween": 562,
      "Ġme": 563,
      "ue": 564,
      "ression": 565,
      "ep": 566,
      "ari": 567,
      "Ġk": 568,
      "Ġpres": 569,
      "Ġbetween": 570,
      "ple": 571,
      "low": 572,
      "Ġsub": 573,
      "Ġreg": 574,
      "NA": 575,
      "val": 576,
      "Ġeffec": 577,
      "Ġrec": 578,
      "Ġph": 579,
      "Ġtrans": 580,
      "Ġresul": 581,
      "Ġsignific": 582,
      "ach": 583,
      "Ġincre": 584,
      "ĠW": 585,
      "01": 586,
      "Ġgroup": 587,
      "rol": 588,
      "Ġwhe": 589,
      "tr": 590,
      "enc": 591,
      "ose": 592,
      "yl": 593,
      "all": 594,
      "Ġind": 595,
      "Ġdet": 596,
      "ata": 597,
      "form": 598,
      "ight": 599,
      "Ġusing": 600,
      "so": 601,
      "ĠO": 602,
      "ates": 603,
      "Ġspec": 604,
      "end": 605,
      "ren": 606,
      "ied": 607,
      "Ġsc": 608,
      "Ġsignificant": 609,
      "unc": 610,
      "pon": 611,
      "ome": 612,
      "ak": 613,
      "Ġcons": 614,
      "tein": 615,
      "ound": 616,
      "rib": 617,
      "erm": 618,
      "âĢĵ": 619,
      "ill": 620,
      "ven": 621,
      "pt": 622,
      "fter": 623,
      "oci": 624,
      "tim": 625,
      "Ġalso": 626,
      "uld": 627,
      "Ġused": 628,
      "ory": 629,
      "Ġactiv": 630,
      "Ġsur": 631,
      "port": 632,
      "Ġrel": 633,
      "ath": 634,
      "ugh": 635,
      "Ġmic": 636,
      "lud": 637,
      "Ġsam": 638,
      "Ġet": 639,
      "Ġlevel": 640,
      "Ġbeen": 641,
      "str": 642,
      "our": 643,
      "Ġthan": 644,
      "Ġcor": 645,
      "Ġhas": 646,
      "Ġthese": 647,
      "Ġun": 648,
      "Ġam": 649,
      "Ġanalys": 650,
      "ree": 651,
      "iti": 652,
      "Ġdata": 653,
      "ility": 654,
      "In": 655,
      "Ġy": 656,
      "one": 657,
      "Ġpos": 658,
      "wo": 659,
      "Ġprotein": 660,
      "oth": 661,
      "reatment": 662,
      "per": 663,
      "ress": 664,
      "ens": 665,
      "ual": 666,
      "ros": 667,
      "Ġall": 668,
      "Ġanti": 669,
      "ulation": 670,
      "Ġstr": 671,
      "Ġinv": 672,
      "Ġhigh": 673,
      "Ġ6": 674,
      "ely": 675,
      "his": 676,
      "tional": 677,
      "ases": 678,
      "ass": 679,
      "Ġund": 680,
      "Ġtim": 681,
      "Ġvari": 682,
      "vely": 683,
      "Ġmay": 684,
      "ide": 685,
      "Ġacc": 686,
      "tal": 687,
      "ech": 688,
      "Ġno": 689,
      "Ġafter": 690,
      "Ġother": 691,
      "ser": 692,
      "out": 693,
      "Ġqu": 694,
      "ared": 695,
      "ating": 696,
      "Ġtheir": 697,
      "ĠU": 698,
      "Ġtreatment": 699,
      "Ġmore": 700,
      "Ġro": 701,
      "ym": 702,
      "ang": 703,
      "ting": 704,
      ".,": 705,
      "Ġcol": 706,
      "rap": 707,
      "Ġcontrol": 708,
      "rain": 709,
      "Ġtwo": 710,
      "entr": 711,
      "ection": 712,
      "Ġlow": 713,
      "Fig": 714,
      "Ġag": 715,
      "ever": 716,
      "Ġinclud": 717,
      "ater": 718,
      "Ġunder": 719,
      "Ġbut": 720,
      "ox": 721,
      "Ġdes": 722,
      "duced": 723,
      "tain": 724,
      "uch": 725,
      "Ġassoci": 726,
      "aus": 727,
      "ard": 728,
      "Ġ=": 729,
      "Ġexpression": 730,
      "Ġsp": 731,
      "Ġconc": 732,
      "ood": 733,
      "ew": 734,
      "uring": 735,
      "Ġval": 736,
      "ures": 737,
      "Ġresults": 738,
      "ile": 739,
      "Ġmodel": 740,
      "mun": 741,
      "Ġbl": 742,
      "Ġmed": 743,
      "Ġfol": 744,
      "Ġrespon": 745,
      "lu": 746,
      "Ġsup": 747,
      "Ġdec": 748,
      "Ġar": 749,
      "ber": 750,
      "anc": 751,
      "ered": 752,
      "ized": 753,
      "ined": 754,
      "velop": 755,
      "stem": 756,
      "Ġpr": 757,
      "yt": 758,
      "Ġbi": 759,
      "Ġanalysis": 760,
      "Ġmo": 761,
      "Ġcar": 762,
      "ace": 763,
      "Ġout": 764,
      "Ġmeth": 765,
      "acter": 766,
      "red": 767,
      "Ġmeas": 768,
      "Ġperform": 769,
      "Ġboth": 770,
      "Ġstudies": 771,
      "Ġ201": 772,
      "ues": 773,
      "ture": 774,
      "Ġ7": 775,
      "der": 776,
      "Ġfact": 777,
      "hib": 778,
      "Ġman": 779,
      "ants": 780,
      "Ġobser": 781,
      "Ġfunc": 782,
      "Ġsim": 783,
      "arg": 784,
      "Ġdevelop": 785,
      "Ġover": 786,
      "Ġdifferent": 787,
      "cess": 788,
      "ten": 789,
      "Ġ10": 790,
      "alth": 791,
      "ogen": 792,
      "owever": 793,
      "ite": 794,
      "Ġid": 795,
      "Ġgene": 796,
      "Ġtime": 797,
      "Ġpartic": 798,
      "ĠÎ": 799,
      "Ġ200": 800,
      "ect": 801,
      "gen": 802,
      "Ġfollow": 803,
      "Ġnum": 804,
      "entif": 805,
      "Ġindic": 806,
      "Ġhad": 807,
      "ail": 808,
      "ne": 809,
      "Ġform": 810,
      "Ġ9": 811,
      "Ġexper": 812,
      "ution": 813,
      "Ġli": 814,
      "rec": 815,
      "ays": 816,
      "ism": 817,
      "Ġone": 818,
      "10": 819,
      "osis": 820,
      "Ġpresent": 821,
      "Ġdise": 822,
      "ond": 823,
      "Ġeach": 824,
      "de": 825,
      "inal": 826,
      "ype": 827,
      "ob": 828,
      "Ġsystem": 829,
      "les": 830,
      "hed": 831,
      "ological": 832,
      "als": 833,
      "Ġfound": 834,
      "Ġser": 835,
      "ĠK": 836,
      "plic": 837,
      "inding": 838,
      "ĠV": 839,
      "ork": 840,
      "Ġduring": 841,
      "ry": 842,
      "Ġlevels": 843,
      "ble": 844,
      "Ġsug": 845,
      "atic": 846,
      "ack": 847,
      "Ġnon": 848,
      "rel": 849,
      "hem": 850,
      "Ġcompared": 851,
      "Ġrep": 852,
      "Ġsuch": 853,
      "Ġclin": 854,
      "Ġcomple": 855,
      "Ġappro": 856,
      "Ġhig": 857,
      "cer": 858,
      "ici": 859,
      "Ġinto": 860,
      "Ġmon": 861,
      "ization": 862,
      "tern": 863,
      "Ġsugg": 864,
      "hen": 865,
      "Ġrepor": 866,
      "Ġidentif": 867,
      "Ġem": 868,
      "Ġ8": 869,
      "Ġonly": 870,
      "Ġthere": 871,
      "Ġpath": 872,
      "Ġmethod": 873,
      "ected": 874,
      "Ġour": 875,
      "ild": 876,
      "ex": 877,
      "Ġuse": 878,
      "ric": 879,
      "yc": 880,
      "ition": 881,
      "action": 882,
      "Ġmeasure": 883,
      "ons": 884,
      "Ġup": 885,
      "ould": 886,
      "hibit": 887,
      "Ġhealth": 888,
      "fore": 889,
      "ments": 890,
      "dition": 891,
      "Ġactivity": 892,
      "Ġassociated": 893,
      "ature": 894,
      "mon": 895,
      "âĢĻ": 896,
      "tical": 897,
      "ium": 898,
      "Ġdist": 899,
      "Ġincreased": 900,
      "tively": 901,
      "duction": 902,
      "ces": 903,
      "Ġhyp": 904,
      "Ġgener": 905,
      "isk": 906,
      "ability": 907,
      "own": 908,
      "iss": 909,
      "Ġeffect": 910,
      "ram": 911,
      "Ġrem": 912,
      "Ġits": 913,
      "Ġmost": 914,
      "Ġexam": 915,
      "cc": 916,
      "urther": 917,
      "Ġwell": 918,
      "ears": 919,
      "Ġpol": 920,
      "ĠThis": 921,
      "ark": 922,
      "ulated": 923,
      "ix": 924,
      "Ġshowed": 925,
      "atory": 926,
      "Ġnumber": 927,
      "quenc": 928,
      "Ġobserved": 929,
      "agn": 930,
      "Ġsignificantly": 931,
      "Ġmin": 932,
      "Ġdep": 933,
      "Ġclinical": 934,
      "Ġend": 935,
      "ord": 936,
      "Ġrece": 937,
      "Ġprovid": 938,
      "irst": 939,
      "vious": 940,
      "Ġpot": 941,
      "Ġdeterm": 942,
      "Ġdem": 943,
      "Ġra": 944,
      "Ġgl": 945,
      "ll": 946,
      "Ġop": 947,
      "ines": 948,
      "uman": 949,
      "Ġdef": 950,
      "Ġrespec": 951,
      "Ġsec": 952,
      "Ġdisease": 953,
      "Ġhigher": 954,
      "Ġtum": 955,
      "Ġpo": 956,
      "ange": 957,
      "ke": 958,
      "We": 959,
      "Ġcould": 960,
      "ination": 961,
      "ale": 962,
      "rough": 963,
      "ilar": 964,
      "ough": 965,
      "Ġwhen": 966,
      "ential": 967,
      "ON": 968,
      "iv": 969,
      "hes": 970,
      "Ġ19": 971,
      "Ġconcentr": 972,
      "Ġshown": 973,
      "itive": 974,
      "Ġloc": 975,
      "Ġsm": 976,
      "ult": 977,
      "urren": 978,
      "Ġtest": 979,
      "Ġprocess": 980,
      "Ġreported": 981,
      "],": 982,
      "âĪ": 983,
      "12": 984,
      "ormal": 985,
      "Ġperformed": 986,
      "Ġconf": 987,
      "ax": 988,
      "Ġrisk": 989,
      "Ġeffects": 990,
      "Ġthree": 991,
      "ause": 992,
      "Ġimmun": 993,
      "Ġsyn": 994,
      "emb": 995,
      "Ġcancer": 996,
      "Ġwho": 997,
      "RNA": 998,
      "Ġprog": 999,
      "tig": 1000,
      "Ġes": 1001,
      "oid": 1002,
      "ĠFig": 1003,
      "Ġpred": 1004,
      "onstr": 1005,
      "Ġchar": 1006,
      "Ġexperim": 1007,
      "ology": 1008,
      "ize": 1009,
      "valu": 1010,
      "Ġimport": 1011,
      "min": 1012,
      "raph": 1013,
      "ery": 1014,
      "Ġassess": 1015,
      "Ġstruc": 1016,
      "ently": 1017,
      "oun": 1018,
      "Ġmean": 1019,
      "Ġwhere": 1020,
      "Ġdesc": 1021,
      "ĠâĢ": 1022,
      "ions": 1023,
      "Ġfirst": 1024,
      "par": 1025,
      "Ġhuman": 1026,
      "pos": 1027,
      "Ġpop": 1028,
      "Ġcal": 1029,
      "ities": 1030,
      "old": 1031,
      "qui": 1032,
      "erg": 1033,
      "ores": 1034,
      "yd": 1035,
      "tit": 1036,
      "Ġgenes": 1037,
      "Ġmul": 1038,
      "Ġgroups": 1039,
      "ok": 1040,
      "av": 1041,
      "Ġsampl": 1042,
      "Ġkn": 1043,
      "Ġref": 1044,
      "ages": 1045,
      "tained": 1046,
      "Ġevalu": 1047,
      "ron": 1048,
      "Ġprevious": 1049,
      "Ġdecre": 1050,
      "Ġthrough": 1051,
      "lic": 1052,
      "med": 1053,
      "echan": 1054,
      "Ġmut": 1055,
      "Ġocc": 1056,
      "Ġmicro": 1057,
      "Ġage": 1058,
      "ft": 1059,
      "Ġtr": 1060,
      "ption": 1061,
      "Ġindi": 1062,
      "amm": 1063,
      "ute": 1064,
      "Ġgrow": 1065,
      "CT": 1066,
      "Ġmice": 1067,
      "reated": 1068,
      "Ġtiss": 1069,
      "Ġtherap": 1070,
      "ort": 1071,
      "led": 1072,
      "estig": 1073,
      "Ġmechan": 1074,
      "ive": 1075,
      "ock": 1076,
      "sive": 1077,
      "Ġprim": 1078,
      "ody": 1079,
      "Ġrespectively": 1080,
      "arget": 1081,
      "Ġacid": 1082,
      "11": 1083,
      "Ġcharacter": 1084,
      "Ġins": 1085,
      "Ġrate": 1086,
      "ise": 1087,
      "Ġsol": 1088,
      "ucle": 1089,
      "ES": 1090,
      "Ġso": 1091,
      "Ġpatient": 1092,
      "Ġinvestig": 1093,
      "Ġinhibit": 1094,
      "ĠJ": 1095,
      "Ġwithin": 1096,
      "Ġchang": 1097,
      "Ġthose": 1098,
      "Ġfunction": 1099,
      "Ġresponse": 1100,
      "Ġdiagn": 1101,
      "Ġsimilar": 1102,
      "endent": 1103,
      "Ġdisc": 1104,
      "Ġimpro": 1105,
      "Ġthey": 1106,
      "Â±": 1107,
      "pit": 1108,
      "Ġdemonstr": 1109,
      "ov": 1110,
      "Ġtotal": 1111,
      "ural": 1112,
      "%)": 1113,
      "vidual": 1114,
      "Ġconsid": 1115,
      "50": 1116,
      "cri": 1117,
      "jec": 1118,
      "Â°": 1119,
      "Ġdo": 1120,
      "Ġ12": 1121,
      "Ġmain": 1122,
      "Ġdescrib": 1123,
      "ĠWe": 1124,
      "âĪĴ": 1125,
      "Ġbec": 1126,
      "Figure": 1127,
      "ind": 1128,
      "Ġparticip": 1129,
      "asm": 1130,
      "oph": 1131,
      "usion": 1132,
      "CR": 1133,
      "Ġaut": 1134,
      "Ġdr": 1135,
      "its": 1136,
      "Ġfe": 1137,
      "Ġimp": 1138,
      "Ġpost": 1139,
      "Ġincluding": 1140,
      "ĠHowever": 1141,
      "atis": 1142,
      "Ġinvol": 1143,
      "gan": 1144,
      "Ġspecific": 1145,
      "view": 1146,
      "Ġyears": 1147,
      "Ġincrease": 1148,
      "Ġset": 1149,
      "reg": 1150,
      "zed": 1151,
      "rop": 1152,
      "Ġsome": 1153,
      "SA": 1154,
      "Ġfactors": 1155,
      "ational": 1156,
      "echn": 1157,
      "Ġtarget": 1158,
      "Ġpredic": 1159,
      "Ġselec": 1160,
      "âĢĲ": 1161,
      "Ġindividual": 1162,
      "Ġcalc": 1163,
      "05": 1164,
      "ograph": 1165,
      "tics": 1166,
      "rect": 1167,
      "over": 1168,
      "Ġimportant": 1169,
      "Ġapp": 1170,
      "This": 1171,
      "ene": 1172,
      "Ġev": 1173,
      "ested": 1174,
      "Ġcompar": 1175,
      "Ġcases": 1176,
      "amet": 1177,
      "Ġsamples": 1178,
      "Ġelec": 1179,
      "int": 1180,
      "osph": 1181,
      "omes": 1182,
      "ie": 1183,
      "Ġrepres": 1184,
      "Ġmulti": 1185,
      "CA": 1186,
      "Ġdevelopment": 1187,
      "13": 1188,
      "Ġbased": 1189,
      "ffici": 1190,
      "ha": 1191,
      "roph": 1192,
      "urrent": 1193,
      "plement": 1194,
      "vers": 1195,
      "Ġcorrel": 1196,
      "Ġantib": 1197,
      "Ġlower": 1198,
      "Ġmor": 1199,
      "ek": 1200,
      "iqu": 1201,
      "Ġinform": 1202,
      "ross": 1203,
      "ness": 1204,
      "aining": 1205,
      "Ġrole": 1206,
      "sible": 1207,
      "CL": 1208,
      "ĠCD": 1209,
      "20": 1210,
      "15": 1211,
      "Ġlim": 1212,
      "Ġwill": 1213,
      "Ġbas": 1214,
      "Ġwork": 1215,
      "ensi": 1216,
      "ving": 1217,
      "Ġcyt": 1218,
      "nal": 1219,
      "ĠDNA": 1220,
      "iod": 1221,
      "Ġnormal": 1222,
      "Ġtri": 1223,
      "Ġamong": 1224,
      "ust": 1225,
      "Ġlong": 1226,
      "ified": 1227,
      "Ġtem": 1228,
      "ental": 1229,
      "14": 1230,
      "ice": 1231,
      "ived": 1232,
      "Ġmolec": 1233,
      "Ġdue": 1234,
      "ful": 1235,
      "yn": 1236,
      "Ġchanges": 1237,
      "Ġdid": 1238,
      "Ġ<": 1239,
      "Ġfre": 1240,
      "arly": 1241,
      "eng": 1242,
      "ai": 1243,
      "Ġnew": 1244,
      "Ġsame": 1245,
      "Ġchild": 1246,
      "cop": 1247,
      "iel": 1248,
      "Ġblood": 1249,
      "tivity": 1250,
      "Ġpotential": 1251,
      "Ġproteins": 1252,
      "GF": 1253,
      "ann": 1254,
      "ited": 1255,
      "til": 1256,
      "Ġsuggest": 1257,
      "Ġj": 1258,
      "Ġvalues": 1259,
      "Ġrequi": 1260,
      "ration": 1261,
      "Ġ20": 1262,
      "ian": 1263,
      "Ġrat": 1264,
      "Ġcare": 1265,
      "Ġfinding": 1266,
      "Ġwhile": 1267,
      "ET": 1268,
      "inc": 1269,
      "hel": 1270,
      "Ġmechanism": 1271,
      "ressed": 1272,
      "Ġaddition": 1273,
      "âĢĿ": 1274,
      "ĠĠ": 1275,
      "ependent": 1276,
      "fer": 1277,
      "Ġav": 1278,
      "Ġneed": 1279,
      "Ġobtained": 1280,
      "Ġidentified": 1281,
      "ties": 1282,
      "Ġprot": 1283,
      "Ġsmall": 1284,
      "Ġdrug": 1285,
      "earch": 1286,
      "AC": 1287,
      "Ġcomb": 1288,
      "omen": 1289,
      "ically": 1290,
      "16": 1291,
      "DS": 1292,
      "ink": 1293,
      "Ġtumor": 1294,
      "spec": 1295,
      "ency": 1296,
      "Ġanaly": 1297,
      "Ġfurther": 1298,
      "Ġspecies": 1299,
      "Ġmemb": 1300,
      "ately": 1301,
      "Ġcomplex": 1302,
      "'s": 1303,
      "ateg": 1304,
      "ield": 1305,
      "ake": 1306,
      "oma": 1307,
      "Ġcondi": 1308,
      "though": 1309,
      "Ġgrowth": 1310,
      "19": 1311,
      "lis": 1312,
      "Ġexpl": 1313,
      "art": 1314,
      "Ġthen": 1315,
      "Ġcap": 1316,
      "iter": 1317,
      "Ġprom": 1318,
      "ane": 1319,
      "asc": 1320,
      "ites": 1321,
      "ĠFor": 1322,
      "Ġextr": 1323,
      "TS": 1324,
      "Ġcoun": 1325,
      "ording": 1326,
      "Ġdifferences": 1327,
      "Ġox": 1328,
      "18": 1329,
      "SI": 1330,
      "arge": 1331,
      "Ġsever": 1332,
      "Ġpopulation": 1333,
      "Ġshould": 1334,
      "Ġtechn": 1335,
      "Ġinj": 1336,
      "ths": 1337,
      "Ġvis": 1338,
      "Ġsecond": 1339,
      "air": 1340,
      "Ġconditions": 1341,
      "Ġaffec": 1342,
      "Ġvir": 1343,
      "ĠSt": 1344,
      "ins": 1345,
      "ingle": 1346,
      "Cs": 1347,
      "aj": 1348,
      "ĠâĢľ": 1349,
      "Ġline": 1350,
      "Ġwithout": 1351,
      "AT": 1352,
      "ditional": 1353,
      "face": 1354,
      "ypes": 1355,
      "Ġclass": 1356,
      "Ġsignal": 1357,
      "eth": 1358,
      "Ġexc": 1359,
      "Ġpat": 1360,
      "Ġmark": 1361,
      "iron": 1362,
      "Ġless": 1363,
      "Ġperiod": 1364,
      "ality": 1365,
      "Ġlead": 1366,
      "ses": 1367,
      "IV": 1368,
      "abol": 1369,
      "Ġstim": 1370,
      "17": 1371,
      "ves": 1372,
      "Ġevid": 1373,
      "Ġsurg": 1374,
      "Ġoutc": 1375,
      "25": 1376,
      "Ġany": 1377,
      "Ġflu": 1378,
      "Ġpe": 1379,
      "Ġtype": 1380,
      "Ġrecept": 1381,
      "Ġpathw": 1382,
      "Ġestim": 1383,
      "Ġsym": 1384,
      "ĠAs": 1385,
      "Ġnucle": 1386,
      "Ġdescribed": 1387,
      "Ġmat": 1388,
      "Ġstand": 1389,
      "li": 1390,
      "Ġfollowing": 1391,
      "Ġiniti": 1392,
      "Ġabout": 1393,
      "Ġsingle": 1394,
      "Ġcase": 1395,
      "lamm": 1396,
      "II": 1397,
      "Ġcommon": 1398,
      "ajor": 1399,
      "Ġcontr": 1400,
      "Ġpresence": 1401,
      "Ġabs": 1402,
      "Ġrepresent": 1403,
      "ĠTh": 1404,
      "uce": 1405,
      "ptom": 1406,
      "Ġoccur": 1407,
      "Ġincluded": 1408,
      "Ġ30": 1409,
      "Ġtissue": 1410,
      "Ġinformation": 1411,
      "sy": 1412,
      "ains": 1413,
      "Ġhist": 1414,
      "Ġtranscri": 1415,
      "Ġel": 1416,
      "ydro": 1417,
      "havi": 1418,
      "Ġreve": 1419,
      "Ġexpos": 1420,
      "Ġext": 1421,
      "cent": 1422,
      "Ġvol": 1423,
      "Ġorgan": 1424,
      "Ġmeasured": 1425,
      "Ġrele": 1426,
      "ĠThese": 1427,
      "âĢī=": 1428,
      "Ġmajor": 1429,
      "Ġ15": 1430,
      "con": 1431,
      "Ġpositive": 1432,
      "ensity": 1433,
      "Ġtra": 1434,
      "hip": 1435,
      "anti": 1436,
      "Ġfactor": 1437,
      "ained": 1438,
      "Ġcurrent": 1439,
      "Ġcr": 1440,
      "ĠCh": 1441,
      "ication": 1442,
      "000": 1443,
      "Ġdel": 1444,
      "Ġsize": 1445,
      "Ġcollec": 1446,
      "Ġsample": 1447,
      "ogn": 1448,
      "ĠAl": 1449,
      "Ġstrain": 1450,
      "ests": 1451,
      "Ġreduced": 1452,
      "Ġcaus": 1453,
      "Ġchem": 1454,
      "Ġbehavi": 1455,
      "AP": 1456,
      "Ġrelated": 1457,
      "Ġgra": 1458,
      "ither": 1459,
      "Ġret": 1460,
      "ced": 1461,
      "Ġresearch": 1462,
      "Ġwould": 1463,
      "Ġmetabol": 1464,
      "to": 1465,
      "ms": 1466,
      "Ġgreat": 1467,
      "ung": 1468,
      "Ġdom": 1469,
      "Ġdistrib": 1470,
      "Ġcle": 1471,
      "ior": 1472,
      "Ġconcentration": 1473,
      "Ġneg": 1474,
      "erc": 1475,
      "Ġneu": 1476,
      "Ġfindings": 1477,
      "Ġinflu": 1478,
      "itro": 1479,
      "uted": 1480,
      "reen": 1481,
      "eration": 1482,
      "ospit": 1483,
      "ick": 1484,
      "Ġisol": 1485,
      "Ġfib": 1486,
      "ification": 1487,
      "Ġphosph": 1488,
      "usc": 1489,
      "Ġreveal": 1490,
      "Ġrati": 1491,
      "Ġbecause": 1492,
      "Ġsurvi": 1493,
      "Ġsequenc": 1494,
      "actions": 1495,
      "30": 1496,
      "Ġtreated": 1497,
      "Ġdifferenti": 1498,
      "ĠIt": 1499,
      "Ġdays": 1500,
      "Ġlarge": 1501,
      "ans": 1502,
      "Ġfr": 1503,
      "omic": 1504,
      "To": 1505,
      "verage": 1506,
      "Ġradi": 1507,
      "Ġreview": 1508,
      "io": 1509,
      "ĠThere": 1510,
      "ĠAn": 1511,
      "Ġregion": 1512,
      "Ġterm": 1513,
      "ade": 1514,
      "Ġpattern": 1515,
      "ator": 1516,
      "onal": 1517,
      "Ġfl": 1518,
      "âĢĬ": 1519,
      "HO": 1520,
      "Ġstatis": 1521,
      "Ġmal": 1522,
      "zym": 1523,
      "Ġprob": 1524,
      "ty": 1525,
      "Ġagain": 1526,
      "omet": 1527,
      "Ġtherapy": 1528,
      "Ġinfection": 1529,
      "Ġprimary": 1530,
      "ĠFigure": 1531,
      "Ġ24": 1532,
      "Ġchildren": 1533,
      "Ġif": 1534,
      "MS": 1535,
      "Ġanim": 1536,
      "Ġstructure": 1537,
      "MP": 1538,
      "Ġwomen": 1539,
      "ocyt": 1540,
      "Ġevidence": 1541,
      "Ġparamet": 1542,
      "struc": 1543,
      "vere": 1544,
      "ulations": 1545,
      "quence": 1546,
      "Ġcul": 1547,
      "Ġvalue": 1548,
      "Ġavail": 1549,
      "Ġsurface": 1550,
      "Ġfour": 1551,
      "viron": 1552,
      "Ġcyc": 1553,
      "ety": 1554,
      "Ġmembran": 1555,
      "och": 1556,
      "Ġdeg": 1557,
      "Ġconduc": 1558,
      "Ġseveral": 1559,
      "of": 1560,
      "based": 1561,
      "Ġdifference": 1562,
      "Ġphen": 1563,
      "hesis": 1564,
      "ĠIL": 1565,
      "atal": 1566,
      "Ġele": 1567,
      "Ġbefore": 1568,
      "Ġlik": 1569,
      "Ġdemonstrated": 1570,
      "acy": 1571,
      "Ġweek": 1572,
      "Ġproduc": 1573,
      "jects": 1574,
      "cept": 1575,
      "Ġpur": 1576,
      "Ġep": 1577,
      "Ġstress": 1578,
      "Ġstandard": 1579,
      "Ġparticipants": 1580,
      "Ġatt": 1581,
      "Ġfam": 1582,
      "CC": 1583,
      "ission": 1584,
      "Ġbinding": 1585,
      "Ġ100": 1586,
      "Ġol": 1587,
      "Ġpreviously": 1588,
      "ward": 1589,
      "Ġplasm": 1590,
      "Ġcontrib": 1591,
      "Ġbre": 1592,
      "Ġ50": 1593,
      "ascular": 1594,
      "br": 1595,
      "respon": 1596,
      "Ġprof": 1597,
      "23": 1598,
      "Ġactivation": 1599,
      "Ġtemper": 1600,
      "ily": 1601,
      "Ġadd": 1602,
      "Ġbrain": 1603,
      "medi": 1604,
      "Ġdesign": 1605,
      "co": 1606,
      "AS": 1607,
      "Ġwater": 1608,
      "Ġneur": 1609,
      "ife": 1610,
      "Ġlocal": 1611,
      "asing": 1612,
      "ouse": 1613,
      "Ġwhether": 1614,
      "Ġphys": 1615,
      "24": 1616,
      "Ġsensi": 1617,
      "tis": 1618,
      "other": 1619,
      "xim": 1620,
      "ĠRNA": 1621,
      "Ġred": 1622,
      "Ġdetermined": 1623,
      "ĠÎ¼": 1624,
      "ove": 1625,
      "aging": 1626,
      "cl": 1627,
      "%,": 1628,
      "arm": 1629,
      "Ġconsidered": 1630,
      "Ġdirect": 1631,
      "af": 1632,
      "Ġfem": 1633,
      "Ġimprove": 1634,
      "Ġenh": 1635,
      "elf": 1636,
      "Ġsymptom": 1637,
      "Ġpub": 1638,
      "Ġmodels": 1639,
      "Ġlab": 1640,
      "RI": 1641,
      "ÃĹ": 1642,
      "iven": 1643,
      "Ġconfir": 1644,
      "Ġpossible": 1645,
      "line": 1646,
      "Ġver": 1647,
      "Ġrange": 1648,
      "oper": 1649,
      "Ġmany": 1650,
      "ning": 1651,
      "Ġresist": 1652,
      "round": 1653,
      "Ġresult": 1654,
      "Ġeither": 1655,
      "Ġstruct": 1656,
      "atively": 1657,
      "Ġcardi": 1658,
      "Ġmater": 1659,
      "Ġearly": 1660,
      "aren": 1661,
      "22": 1662,
      "Ġpromot": 1663,
      "ĠQ": 1664,
      "vant": 1665,
      "row": 1666,
      "PA": 1667,
      "Ġchange": 1668,
      "oss": 1669,
      "me": 1670,
      "Ġcharacteris": 1671,
      "Ġknown": 1672,
      "Ġrelations": 1673,
      "ince": 1674,
      "Ġdecreased": 1675,
      "ospital": 1676,
      "ish": 1677,
      "othe": 1678,
      "Ġequ": 1679,
      "Ġ14": 1680,
      "âĢī0": 1681,
      "Ġvi": 1682,
      "ĠTable": 1683,
      "tically": 1684,
      "Ġallow": 1685,
      "Ġconsist": 1686,
      "ling": 1687,
      "PS": 1688,
      "verse": 1689,
      "Ġmethods": 1690,
      "Ġinterven": 1691,
      "Ġstrong": 1692,
      "ics": 1693,
      "erv": 1694,
      "Î²": 1695,
      "Ġ199": 1696,
      "Ġapproach": 1697,
      "Ġpart": 1698,
      "roscop": 1699,
      "Ġfunctional": 1700,
      "idence": 1701,
      "Ġ+": 1702,
      "Ġmultiple": 1703,
      "Ġagainst": 1704,
      "Ġmy": 1705,
      "work": 1706,
      "irc": 1707,
      "Ġconcentrations": 1708,
      "Ġbacter": 1709,
      "ually": 1710,
      "the": 1711,
      "Ġproper": 1712,
      "els": 1713,
      "Ġmusc": 1714,
      "ylation": 1715,
      "Ġenviron": 1716,
      "001": 1717,
      "sure": 1718,
      "RES": 1719,
      "Ġrevealed": 1720,
      "ules": 1721,
      "UL": 1722,
      "tro": 1723,
      "ste": 1724,
      "Ġsu": 1725,
      "Ġenzym": 1726,
      "Ġ16": 1727,
      "SION": 1728,
      "Ġparticular": 1729,
      "Ġdetected": 1730,
      "ĠX": 1731,
      "ount": 1732,
      "Ġinvolved": 1733,
      "Ġorder": 1734,
      "Ġanalyzed": 1735,
      "Ġest": 1736,
      "andom": 1737,
      "Ġfrequenc": 1738,
      "mit": 1739,
      "Ġmight": 1740,
      "Ġ18": 1741,
      "21": 1742,
      "Ġrelationship": 1743,
      "ĠUn": 1744,
      "CON": 1745,
      "lished": 1746,
      "erest": 1747,
      "Ġmonths": 1748,
      "minist": 1749,
      "ored": 1750,
      "ĠZ": 1751,
      "err": 1752,
      "Ġinflamm": 1753,
      "Ġprol": 1754,
      "Ġregul": 1755,
      "ae": 1756,
      "Ġsurvival": 1757,
      "ĠCI": 1758,
      "Ġed": 1759,
      "omy": 1760,
      "Ġhyper": 1761,
      "Ġavailable": 1762,
      "term": 1763,
      "Ġmg": 1764,
      "Ġsus": 1765,
      "Ġlip": 1766,
      "Ġnet": 1767,
      "epti": 1768,
      "CLU": 1769,
      "Ġvs": 1770,
      "Ġsupport": 1771,
      "ables": 1772,
      "eu": 1773,
      "Ġmi": 1774,
      "Ġrates": 1775,
      "CLUSION": 1776,
      "Ġnec": 1777,
      "Ġculture": 1778,
      "Ġserum": 1779,
      "Ġphase": 1780,
      "Ġratio": 1781,
      "omp": 1782,
      "sequ": 1783,
      "Ġpers": 1784,
      "Ġcompon": 1785,
      "Ġvery": 1786,
      "Ġaccording": 1787,
      "Ġindicated": 1788,
      "Ġ13": 1789,
      "Ġproced": 1790,
      "Ġbel": 1791,
      "27": 1792,
      "Ġchrom": 1793,
      "induced": 1794,
      "Ġlo": 1795,
      "Ġprovide": 1796,
      "Ġlikely": 1797,
      "Ġdiagnosis": 1798,
      "Ġsequence": 1799,
      "Ġfil": 1800,
      "ND": 1801,
      "Ġexpressed": 1802,
      "Table": 1803,
      "Ġbeing": 1804,
      "Ġweight": 1805,
      "CONCLUSION": 1806,
      "ĠÂ±": 1807,
      "inf": 1808,
      "Ġresid": 1809,
      "Ġexperiments": 1810,
      "Ġday": 1811,
      "erence": 1812,
      "atus": 1813,
      "Ġcommun": 1814,
      "Ġeff": 1815,
      "40": 1816,
      "Ġunderst": 1817,
      "CD": 1818,
      "Ġarea": 1819,
      "Ġvarious": 1820,
      "Ġu": 1821,
      "Ġrandom": 1822,
      "Ġdeveloped": 1823,
      "ardi": 1824,
      "sc": 1825,
      "ysis": 1826,
      "26": 1827,
      "ised": 1828,
      "Ġhem": 1829,
      "Ġproduction": 1830,
      "Ġfac": 1831,
      "Ġsuc": 1832,
      "Ġ95": 1833,
      "amin": 1834,
      "OS": 1835,
      "ULTS": 1836,
      "Ġtechniqu": 1837,
      "Ġdiagnos": 1838,
      "Ġ25": 1839,
      "plications": 1840,
      "ull": 1841,
      "ision": 1842,
      "Ġdose": 1843,
      "Ġnegative": 1844,
      "fficient": 1845,
      "Ġpresented": 1846,
      "Ġpri": 1847,
      "uration": 1848,
      "ĠTo": 1849,
      "cin": 1850,
      "Ġreceptor": 1851,
      "Ġrecom": 1852,
      "Ġtemperature": 1853,
      "ulin": 1854,
      "Ġquality": 1855,
      "anced": 1856,
      "esis": 1857,
      "Î±": 1858,
      "ended": 1859,
      "Cl": 1860,
      "Ps": 1861,
      "Ġformation": 1862,
      "Ġprac": 1863,
      "Ġmen": 1864,
      "Ġques": 1865,
      "otype": 1866,
      "ength": 1867,
      "ellular": 1868,
      "Ġsubjects": 1869,
      "Ġanalyses": 1870,
      "related": 1871,
      "olution": 1872,
      "ymph": 1873,
      "plied": 1874,
      "Ġbody": 1875,
      "28": 1876,
      "plication": 1877,
      "Ġ-": 1878,
      "Ġz": 1879,
      "Ġgeneral": 1880,
      "Ġmembrane": 1881,
      "29": 1882,
      "specific": 1883,
      "atures": 1884,
      "Ġmolecular": 1885,
      "Ġaverage": 1886,
      "Ġadditional": 1887,
      "RESULTS": 1888,
      "Ġdetermine": 1889,
      "ison": 1890,
      "vent": 1891,
      "ults": 1892,
      "teg": 1893,
      "Ġcontrast": 1894,
      "ETHO": 1895,
      "Ġreport": 1896,
      "Ġcirc": 1897,
      "ably": 1898,
      "ters": 1899,
      "Ġadj": 1900,
      "Ġpain": 1901,
      "ume": 1902,
      "Ġinduced": 1903,
      "Ġdat": 1904,
      "Ġidentify": 1905,
      "Ġprogram": 1906,
      "Ġflow": 1907,
      "Ġcorrespon": 1908,
      "sych": 1909,
      "Ġloss": 1910,
      "Ġrelative": 1911,
      "Ġassociation": 1912,
      "Ġadminist": 1913,
      "ists": 1914,
      "BS": 1915,
      "Ġcalculated": 1916,
      "Ġenvironment": 1917,
      "Ġfoc": 1918,
      "ocytes": 1919,
      "Ġdistribution": 1920,
      "Ġsk": 1921,
      "Ġexperi": 1922,
      "ner": 1923,
      "bility": 1924,
      "ule": 1925,
      "Ġparameters": 1926,
      "Ġresponses": 1927,
      "Ġfollowed": 1928,
      "Ġleast": 1929,
      "Ġmax": 1930,
      "RP": 1931,
      "ĠY": 1932,
      "RT": 1933,
      "Ġnetwork": 1934,
      "Ġsites": 1935,
      "ogene": 1936,
      "These": 1937,
      "Ġlarg": 1938,
      "Ġwhereas": 1939,
      "Ġregions": 1940,
      "Ġreduction": 1941,
      "Ġstrateg": 1942,
      "eline": 1943,
      "Ġconducted": 1944,
      "Ġexposure": 1945,
      "Ġextrac": 1946,
      ");": 1947,
      "Ġgiven": 1948,
      "Ġcontin": 1949,
      "Ġindividuals": 1950,
      "opl": 1951,
      "ds": 1952,
      "ronic": 1953,
      "Al": 1954,
      "Ġthem": 1955,
      "Ġvia": 1956,
      "Ġhowever": 1957,
      "EM": 1958,
      "Ġlymph": 1959,
      "As": 1960,
      "Ġincub": 1961,
      "Ġperformance": 1962,
      "ĠSc": 1963,
      "Ġintr": 1964,
      "odies": 1965,
      "Ġgu": 1966,
      "very": 1967,
      "ode": 1968,
      "Ġenc": 1969,
      "Ġgreater": 1970,
      "Ġi": 1971,
      "Ġsite": 1972,
      "Ġder": 1973,
      "imum": 1974,
      "ergy": 1975,
      "Ġrequired": 1976,
      "Ġhydro": 1977,
      "Ġmix": 1978,
      "Ġstate": 1979,
      "ides": 1980,
      "Ġacross": 1981,
      "ography": 1982,
      "aneous": 1983,
      "Ġpolym": 1984,
      "Ġhel": 1985,
      "posed": 1986,
      "more": 1987,
      "roup": 1988,
      "Ġeven": 1989,
      "Ġgenetic": 1990,
      "Ġliver": 1991,
      "Ġdown": 1992,
      "app": 1993,
      "Ġles": 1994,
      "Ġfield": 1995,
      "Ġsymptoms": 1996,
      "Ġeffective": 1997,
      "ETHODS": 1998,
      "Ġincreasing": 1999,
      "Ġmass": 2000,
      "Ġsurgery": 2001,
      "Ġhom": 2002,
      "Ġevaluated": 2003,
      "ours": 2004,
      "Ġmechanisms": 2005,
      "Ġcompound": 2006,
      "Ġlife": 2007,
      "Ġsti": 2008,
      "Ġsepar": 2009,
      "cence": 2010,
      "Ġassay": 2011,
      "ĠAll": 2012,
      "Ġresistance": 2013,
      "RO": 2014,
      "Ġindicate": 2015,
      "Ġnan": 2016,
      "ension": 2017,
      "Ġdeath": 2018,
      "Ġâ": 2019,
      "Ġcur": 2020,
      "ask": 2021,
      "Ġsl": 2022,
      "Ġdiab": 2023,
      "Ġbone": 2024,
      "Ġgluc": 2025,
      "Ġinteraction": 2026,
      "atin": 2027,
      "âĢ²": 2028,
      "Ġcontaining": 2029,
      "icity": 2030,
      "az": 2031,
      "ern": 2032,
      "Ġpathway": 2033,
      "34": 2034,
      "AD": 2035,
      "Ġexamined": 2036,
      "ject": 2037,
      "Ġaim": 2038,
      "Ġbu": 2039,
      "oles": 2040,
      "Ġelectr": 2041,
      "Ġrecord": 2042,
      "Ġinvestigated": 2043,
      "Ġcollected": 2044,
      "Ġassessed": 2045,
      "pir": 2046,
      "Ġfrequency": 2047,
      "ware": 2048,
      "ances": 2049,
      "Ġtimes": 2050,
      "Ġang": 2051,
      "Ġcontrols": 2052,
      "Ġvirus": 2053,
      "ĠmRNA": 2054,
      "Ġtrain": 2055,
      "otherap": 2056,
      "Ġmit": 2057,
      "Ġmm": 2058,
      "Ġtypes": 2059,
      "Ġfail": 2060,
      "enter": 2061,
      "itation": 2062,
      "Ġach": 2063,
      "Ġabove": 2064,
      "Î¼": 2065,
      "Ġcentr": 2066,
      "Ġhow": 2067,
      "Ġsex": 2068,
      "ible": 2069,
      "Ġshows": 2070,
      "helial": 2071,
      "ateral": 2072,
      "Ġproble": 2073,
      "versity": 2074,
      "oy": 2075,
      "rial": 2076,
      "Ġhighly": 2077,
      "Ġplasma": 2078,
      "Ġpressure": 2079,
      "Ġ11": 2080,
      "Âµ": 2081,
      "des": 2082,
      "Ġself": 2083,
      "35": 2084,
      "Ġachie": 2085,
      "ocial": 2086,
      "cep": 2087,
      "tality": 2088,
      "ĠRe": 2089,
      "Ġtested": 2090,
      "Ġestab": 2091,
      "inant": 2092,
      "bl": 2093,
      "pected": 2094,
      "ST": 2095,
      "Ġpreval": 2096,
      "Ġblock": 2097,
      "Ġrats": 2098,
      "OR": 2099,
      "Ġcompos": 2100,
      "Ġcarri": 2101,
      "Ġfamily": 2102,
      "ey": 2103,
      "Ġmaterial": 2104,
      "Ġstatus": 2105,
      "Ġpercent": 2106,
      "Ġcorrelation": 2107,
      "Ġbar": 2108,
      "Ġoper": 2109,
      "Ġbetter": 2110,
      "ols": 2111,
      "onic": 2112,
      "Ġleft": 2113,
      "Ġactive": 2114,
      "Ġknow": 2115,
      "Ġbehavior": 2116,
      "urthermore": 2117,
      "enef": 2118,
      "Ġthus": 2119,
      "Ġinteg": 2120,
      "Ġoutcomes": 2121,
      "95": 2122,
      "Ġsal": 2123,
      "Ġsignaling": 2124,
      "There": 2125,
      "Ġsolution": 2126,
      "Ġsequences": 2127,
      "Ġprior": 2128,
      "Ġscore": 2129,
      "Ġur": 2130,
      "38": 2131,
      "Ġcharacteristics": 2132,
      "Ġproperties": 2133,
      "dependent": 2134,
      "Ġaccur": 2135,
      "type": 2136,
      "mission": 2137,
      "agement": 2138,
      "MI": 2139,
      "amp": 2140,
      "Ġcross": 2141,
      "Ġfocus": 2142,
      "Ġstimul": 2143,
      "Ġhospital": 2144,
      "ru": 2145,
      "Ġreaction": 2146,
      "ml": 2147,
      "Ġexample": 2148,
      "36": 2149,
      "hibition": 2150,
      "ury": 2151,
      "Ġlung": 2152,
      "Ġstudied": 2153,
      "operative": 2154,
      "Ġorig": 2155,
      "Ġmortality": 2156,
      "ocy": 2157,
      "set": 2158,
      "Ġarter": 2159,
      "tin": 2160,
      "ysi": 2161,
      "Ġprec": 2162,
      "oring": 2163,
      "ĠHe": 2164,
      "Ġchronic": 2165,
      "ext": 2166,
      "ands": 2167,
      "ints": 2168,
      "anding": 2169,
      "Ġintra": 2170,
      "Ġmac": 2171,
      "Ġexperimental": 2172,
      "Ġsupp": 2173,
      "However": 2174,
      "Ġbenef": 2175,
      "/-": 2176,
      "Ġvitro": 2177,
      "Ġdefined": 2178,
      "100": 2179,
      "Ġdecrease": 2180,
      "Ġapplied": 2181,
      "like": 2182,
      "Ġlines": 2183,
      ")-": 2184,
      "Ġvalid": 2185,
      "Ġmedical": 2186,
      "80": 2187,
      "Ġindependent": 2188,
      "Ġstep": 2189,
      "Ġtak": 2190,
      "ole": 2191,
      "Ġanimals": 2192,
      "Ġscreen": 2193,
      "Ġexhibit": 2194,
      "ators": 2195,
      "utes": 2196,
      "ially": 2197,
      "Ġoverall": 2198,
      "ĠAd": 2199,
      "CI": 2200,
      "Ġlight": 2201,
      "Ġsevere": 2202,
      "asis": 2203,
      "Ġdiseases": 2204,
      "Ġhere": 2205,
      "Ġprolif": 2206,
      "rag": 2207,
      "Ġdiscus": 2208,
      "Ġobserv": 2209,
      "Ġselected": 2210,
      "Ġmuscle": 2211,
      "Ġpul": 2212,
      "Ġauth": 2213,
      "ices": 2214,
      "AL": 2215,
      "ER": 2216,
      "Ġmedium": 2217,
      "thesis": 2218,
      "active": 2219,
      "Ġlink": 2220,
      "Ġoptim": 2221,
      "Ġdiet": 2222,
      "Ġrecent": 2223,
      "Ġimpact": 2224,
      "ether": 2225,
      "Ġunc": 2226,
      "Ġcarb": 2227,
      "TP": 2228,
      "ĠII": 2229,
      "Ġdetection": 2230,
      "Ġvac": 2231,
      "Ġ17": 2232,
      "Ġpoint": 2233,
      "ĠUSA": 2234,
      "Ġneuro": 2235,
      "Ġsour": 2236,
      "put": 2237,
      "upplement": 2238,
      "Ġimmune": 2239,
      "Ġareas": 2240,
      "Ġlack": 2241,
      "33": 2242,
      "Ġte": 2243,
      "Ġclus": 2244,
      "Ġ.": 2245,
      "arc": 2246,
      "ĠĠĠĠ": 2247,
      "Ġpepti": 2248,
      "Ġsystems": 2249,
      "Ġlength": 2250,
      "Ġoxid": 2251,
      "NF": 2252,
      "Ġread": 2253,
      "AG": 2254,
      "ina": 2255,
      "Ġcondition": 2256,
      "Ġviv": 2257,
      "Ġprovided": 2258,
      "ĠCO": 2259,
      "Ġheter": 2260,
      "ray": 2261,
      "Ġstage": 2262,
      "ogenesis": 2263,
      "lusion": 2264,
      "rad": 2265,
      "Ġvolume": 2266,
      "Ġweeks": 2267,
      "urn": 2268,
      "ales": 2269,
      "Ġfive": 2270,
      "ĠHIV": 2271,
      "uk": 2272,
      "Ġpsych": 2273,
      "rim": 2274,
      "otherapy": 2275,
      "Ġability": 2276,
      "Ġmedi": 2277,
      "Ġemb": 2278,
      "eric": 2279,
      "ĠÎ²": 2280,
      "Ġill": 2281,
      "Ġoften": 2282,
      "Ġshort": 2283,
      "Ġvisual": 2284,
      "Ġ40": 2285,
      "ession": 2286,
      "Ġinhibition": 2287,
      "let": 2288,
      "etes": 2289,
      "Ġenergy": 2290,
      "Ġantibody": 2291,
      "utions": 2292,
      "37": 2293,
      "Ġgly": 2294,
      "eding": 2295,
      "ude": 2296,
      "ots": 2297,
      "ering": 2298,
      "Ġspect": 2299,
      "60": 2300,
      "tif": 2301,
      "Ġsuccess": 2302,
      "Ġcriter": 2303,
      "Ġinterest": 2304,
      "Ġsum": 2305,
      "Ġeth": 2306,
      "gl": 2307,
      "45": 2308,
      "Ġrepe": 2309,
      "METHODS": 2310,
      "An": 2311,
      "Ġtissues": 2312,
      "ĠPro": 2313,
      "lor": 2314,
      "Ġacute": 2315,
      "Ġvivo": 2316,
      "Ġphot": 2317,
      "ĠAm": 2318,
      "ancy": 2319,
      "It": 2320,
      "Ġphysical": 2321,
      "ledge": 2322,
      "Ġrap": 2323,
      "Ġright": 2324,
      "ank": 2325,
      "read": 2326,
      "Ġinitial": 2327,
      "plant": 2328,
      "Ġvariables": 2329,
      "ising": 2330,
      "resh": 2331,
      "ital": 2332,
      "ino": 2333,
      "Ġimaging": 2334,
      "Ġcomparison": 2335,
      "ring": 2336,
      "ynam": 2337,
      "hest": 2338,
      "Ġpap": 2339,
      "Ġdispl": 2340,
      "32": 2341,
      "Ġapproxim": 2342,
      "AR": 2343,
      "Ġbreast": 2344,
      "kg": 2345,
      "Ġfew": 2346,
      "Ġmade": 2347,
      "Ġmouse": 2348,
      "Ġbaseline": 2349,
      "not": 2350,
      "Ġback": 2351,
      "Ġsens": 2352,
      "orb": 2353,
      "oreover": 2354,
      "go": 2355,
      "lex": 2356,
      "Ġtub": 2357,
      "Ġadv": 2358,
      "ĠâĢĺ": 2359,
      "ogenic": 2360,
      "Ġtherefore": 2361,
      "arch": 2362,
      "Ġtox": 2363,
      "Th": 2364,
      "uture": 2365,
      "terior": 2366,
      "ma": 2367,
      "Ġ>": 2368,
      "Ġnovel": 2369,
      "ĠTherefore": 2370,
      "Ġplay": 2371,
      "rome": 2372,
      "Ġapop": 2373,
      "ĠOn": 2374,
      "Ġmorph": 2375,
      "ĠCa": 2376,
      "Ġoff": 2377,
      "Ġcontent": 2378,
      "Ġdoes": 2379,
      "pha": 2380,
      "Ġoutcome": 2381,
      "Ġstrains": 2382,
      "trans": 2383,
      "Ġfeatures": 2384,
      "Ġdys": 2385,
      "ler": 2386,
      "abil": 2387,
      "inally": 2388,
      "Ġcombination": 2389,
      "Ġcause": 2390,
      "Ġsensitivity": 2391,
      "Ġatten": 2392,
      "Ġquestion": 2393,
      "Ġtran": 2394,
      "Ġevents": 2395,
      "Ġpropor": 2396,
      "Ġhep": 2397,
      "PD": 2398,
      "Ġprevalence": 2399,
      "cell": 2400,
      "Ġcontinu": 2401,
      "Ġpeak": 2402,
      "Ġisolated": 2403,
      "Ġampl": 2404,
      "ĠPD": 2405,
      "DNA": 2406,
      "ral": 2407,
      "Ġfluores": 2408,
      "Ġindex": 2409,
      "ĠCT": 2410,
      "Ġcount": 2411,
      "fact": 2412,
      "Ġconfirmed": 2413,
      "Ġsoft": 2414,
      "Ġsuggested": 2415,
      "Ġdam": 2416,
      "Ġstill": 2417,
      "Ġreflec": 2418,
      "tice": 2419,
      "CS": 2420,
      "Ġinterval": 2421,
      "ones": 2422,
      "eutic": 2423,
      "Ġneurons": 2424,
      "treated": 2425,
      "Ġpow": 2426,
      "lying": 2427,
      "Ġinteractions": 2428,
      "astic": 2429,
      "Ġglucose": 2430,
      "âĢīm": 2431,
      "Ġhand": 2432,
      "Ġcellular": 2433,
      "Ġmonit": 2434,
      "pri": 2435,
      "Ġinfluence": 2436,
      "ĠAfter": 2437,
      "amine": 2438,
      "ĠpH": 2439,
      "uble": 2440,
      "Ġdensity": 2441,
      "ographic": 2442,
      "oint": 2443,
      "Ġlimited": 2444,
      "Ġ60": 2445,
      "ochem": 2446,
      "Ġmetast": 2447,
      "31": 2448,
      "Ġul": 2449,
      "Ġlay": 2450,
      "sing": 2451,
      "Ġfood": 2452,
      "ĠThus": 2453,
      "Ġfree": 2454,
      "Ġseen": 2455,
      "Ġscores": 2456,
      "Ġimages": 2457,
      "ave": 2458,
      "ĠEx": 2459,
      "BP": 2460,
      "IN": 2461,
      "Ġsurve": 2462,
      "Ġantibodies": 2463,
      "Ġepit": 2464,
      "Ġposition": 2465,
      "Ġprocesses": 2466,
      "Ġdomain": 2467,
      "antit": 2468,
      "ret": 2469,
      "Ġkey": 2470,
      "Ġparen": 2471,
      "Ġprotoc": 2472,
      "Ġhealthy": 2473,
      "Ġinclude": 2474,
      "Ġfat": 2475,
      "Ġwild": 2476,
      "Âł=": 2477,
      "orph": 2478,
      "Ġinfec": 2479,
      "ĠAD": 2480,
      "Ġelectro": 2481,
      "Ġtop": 2482,
      "Ġbiological": 2483,
      "Ġcat": 2484,
      "istic": 2485,
      "ries": 2486,
      "ĠPCR": 2487,
      "Ġintervention": 2488,
      "Ġconsistent": 2489,
      "Ġsubsequ": 2490,
      "Ġtransi": 2491,
      "Ġknowledge": 2492,
      "ĠCon": 2493,
      "Ġresulting": 2494,
      "Ġtrials": 2495,
      "otic": 2496,
      "Ġliter": 2497,
      "Ġrecogn": 2498,
      "Ġreceived": 2499,
      "aff": 2500,
      "ople": 2501,
      "ĠÎ±": 2502,
      "Ġreduc": 2503,
      "70": 2504,
      "Ġtransfer": 2505,
      "Ġpopulations": 2506,
      "upplementary": 2507,
      "Ġconstruc": 2508,
      "Ġvers": 2509,
      "Ġpathways": 2510,
      "ethyl": 2511,
      "odes": 2512,
      "Ġplace": 2513,
      "Ġcri": 2514,
      "Ġsubst": 2515,
      "Ġconst": 2516,
      "Ġtraining": 2517,
      "stit": 2518,
      "Ġalthough": 2519,
      "Ġyear": 2520,
      "Ġkin": 2521,
      "Ġmale": 2522,
      "Ġcaused": 2523,
      "ochond": 2524,
      "Ġutil": 2525,
      "Ġsocial": 2526,
      "Ġdynam": 2527,
      "Ġdiffic": 2528,
      "Ġerr": 2529,
      "Ġgenome": 2530,
      "ĠmM": 2531,
      "lo": 2532,
      "Ġmanagement": 2533,
      "ef": 2534,
      "Ġx": 2535,
      "ĠAt": 2536,
      "ulf": 2537,
      "Ġcateg": 2538,
      "Ġhelp": 2539,
      "vement": 2540,
      "53": 2541,
      "Ġdim": 2542,
      "Ġrapid": 2543,
      "pose": 2544,
      "olar": 2545,
      "aps": 2546,
      "%),": 2547,
      "Ġsuggesting": 2548,
      "Ġcorresponding": 2549,
      "Ġproposed": 2550,
      "Ġgood": 2551,
      "ector": 2552,
      "Ġpublic": 2553,
      "Ġchall": 2554,
      "Ġlimit": 2555,
      "izing": 2556,
      "Ġtumors": 2557,
      "Our": 2558,
      "Ġtests": 2559,
      "MA": 2560,
      "ems": 2561,
      "ids": 2562,
      "ulate": 2563,
      "Ġevaluate": 2564,
      "ressing": 2565,
      "year": 2566,
      "Ġpoor": 2567,
      "Ġmutations": 2568,
      "Ġdiss": 2569,
      "SD": 2570,
      "ĠCA": 2571,
      "Ġtranscription": 2572,
      "ense": 2573,
      "Ġmicroscop": 2574,
      "Ġquanti": 2575,
      "Ġstructures": 2576,
      "Ġinjury": 2577,
      "Ġabsence": 2578,
      "Ġcoh": 2579,
      "itis": 2580,
      "Ġheart": 2581,
      "opath": 2582,
      "itu": 2583,
      "Ġlig": 2584,
      "Ġcriteria": 2585,
      "oti": 2586,
      "inary": 2587,
      "ason": 2588,
      "For": 2589,
      "Ġpatterns": 2590,
      "Ġax": 2591,
      "gn": 2592,
      "Ġsince": 2593,
      "Ġphosphor": 2594,
      "normal": 2595,
      "Ġdiabetes": 2596,
      "tle": 2597,
      "Ġactivities": 2598,
      "ĠmiR": 2599,
      "ustr": 2600,
      "Ġtask": 2601,
      "Ġdetail": 2602,
      "Ġproliferation": 2603,
      "39": 2604,
      "ploy": 2605,
      "Ġincidence": 2606,
      "44": 2607,
      "ences": 2608,
      "Ġregression": 2609,
      "Ġexperiment": 2610,
      "oh": 2611,
      "Ġsuggests": 2612,
      "emia": 2613,
      "Ġpredict": 2614,
      "Ġsix": 2615,
      "any": 2616,
      "Ġimproved": 2617,
      "mL": 2618,
      "Ġremo": 2619,
      "Ġfrequ": 2620,
      "Ġwor": 2621,
      "Ġir": 2622,
      "Ġcolon": 2623,
      "unction": 2624,
      "Ġauthors": 2625,
      "Ġbiom": 2626,
      "Ġelev": 2627,
      "Ġproduced": 2628,
      "ertain": 2629,
      "Ġmeasures": 2630,
      "Ġincreases": 2631,
      "Ġassessment": 2632,
      "Ġrecomm": 2633,
      "Ġaffected": 2634,
      "Ġ37": 2635,
      "Ġrest": 2636,
      "ean": 2637,
      "ĠRes": 2638,
      "Ġve": 2639,
      "Ġfunctions": 2640,
      "enced": 2641,
      "tosis": 2642,
      "Ġdrugs": 2643,
      "Ġmeasurements": 2644,
      "Ġfix": 2645,
      "200": 2646,
      "Ġprocedure": 2647,
      "ygen": 2648,
      "Ġestimated": 2649,
      "Ġwid": 2650,
      "ffer": 2651,
      "artic": 2652,
      "Ġcomponents": 2653,
      "Ġtoward": 2654,
      "Ġtrial": 2655,
      "Ġpeople": 2656,
      "Ġcomplete": 2657,
      "oung": 2658,
      "Ġsuper": 2659,
      "ĠMS": 2660,
      "bi": 2661,
      "olic": 2662,
      "pite": 2663,
      "MD": 2664,
      "Ġtherapeutic": 2665,
      "aged": 2666,
      "ressive": 2667,
      "Ġliterature": 2668,
      "pecially": 2669,
      "aw": 2670,
      "Ġdos": 2671,
      "Ġsecondary": 2672,
      "vices": 2673,
      "Ġcoll": 2674,
      "sp": 2675,
      "ining": 2676,
      "Ġâī": 2677,
      "oding": 2678,
      "CONCLUSIONS": 2679,
      "Ġcompounds": 2680,
      "Ġrelease": 2681,
      "Ġsaf": 2682,
      "Ġnecess": 2683,
      "ier": 2684,
      "Ġadap": 2685,
      "fold": 2686,
      "ĠÂµ": 2687,
      "order": 2688,
      "Ġmem": 2689,
      "Ġprevent": 2690,
      "here": 2691,
      "rin": 2692,
      "arb": 2693,
      "Ġfemale": 2694,
      "went": 2695,
      "Ġenzyme": 2696,
      "Ġreal": 2697,
      "Ġexpected": 2698,
      "isted": 2699,
      "Ġpregn": 2700,
      "Ġmid": 2701,
      "Ġinvestigate": 2702,
      "Ġconn": 2703,
      "rix": 2704,
      "Ġsubstr": 2705,
      "Ġclear": 2706,
      "Ġadded": 2707,
      "Ġterms": 2708,
      "Ġaccum": 2709,
      "Ġmitochond": 2710,
      "omal": 2711,
      "icacy": 2712,
      "Ġcogn": 2713,
      "Ġinsulin": 2714,
      "Ġcombined": 2715,
      "Ġalle": 2716,
      "Ġcarcin": 2717,
      "Ġversus": 2718,
      "Ġpair": 2719,
      "ify": 2720,
      "Ġexten": 2721,
      "Ġplant": 2722,
      "Ġalong": 2723,
      "Ġclos": 2724,
      "MR": 2725,
      "Ġable": 2726,
      "Ġess": 2727,
      "formation": 2728,
      "NP": 2729,
      "Ġseg": 2730,
      "Ġdeli": 2731,
      "Ġapproximately": 2732,
      "Ġregulation": 2733,
      "ĠIg": 2734,
      "Ġsurgical": 2735,
      "Ġalg": 2736,
      "âĢ¯": 2737,
      "Ġeduc": 2738,
      "ĠAlthough": 2739,
      "hile": 2740,
      "Ġyield": 2741,
      "Ġgenerated": 2742,
      "way": 2743,
      "Ġload": 2744,
      "Ġcarried": 2745,
      "Ġhy": 2746,
      "Ġespecially": 2747,
      "ĠST": 2748,
      "IP": 2749,
      "Ġmig": 2750,
      "pression": 2751,
      "ĠMed": 2752,
      "activ": 2753,
      "Ġlat": 2754,
      "Ġcry": 2755,
      "Ġgast": 2756,
      "Ġtransl": 2757,
      "Ġamino": 2758,
      "Ġcent": 2759,
      "Ġside": 2760,
      "Ġcere": 2761,
      "Ġcorrelated": 2762,
      "Ġartic": 2763,
      "Ġdirectly": 2764,
      "Ġlog": 2765,
      "LA": 2766,
      "otypes": 2767,
      "Ġgo": 2768,
      "49": 2769,
      "Ġparti": 2770,
      "man": 2771,
      "CM": 2772,
      "PCR": 2773,
      "Ġsw": 2774,
      "Ġmuch": 2775,
      "ĠFurthermore": 2776,
      "Ġfacil": 2777,
      "ird": 2778,
      "Ġsumm": 2779,
      "rich": 2780,
      "Ġduration": 2781,
      "Ġsynd": 2782,
      "Ġpoints": 2783,
      "aced": 2784,
      "Ġevaluation": 2785,
      "Ġcycle": 2786,
      "75": 2787,
      "SP": 2788,
      "Ġsch": 2789,
      "Ġdifferentiation": 2790,
      "Ġmarkers": 2791,
      "dom": 2792,
      "utri": 2793,
      "Ġnat": 2794,
      "Ġdri": 2795,
      "ĠCl": 2796,
      "Ġresulted": 2797,
      "Ġfinal": 2798,
      "Ġamount": 2799,
      "ze": 2800,
      "Ġact": 2801,
      "Ġhours": 2802,
      "Ġlesions": 2803,
      "Ġexist": 2804,
      "Ġrang": 2805,
      "Ġpossi": 2806,
      "Ġaffect": 2807,
      "Ġapoptosis": 2808,
      "Ġopen": 2809,
      "KG": 2810,
      "Ġeffici": 2811,
      "Ġmutant": 2812,
      "overy": 2813,
      "Ġchann": 2814,
      "agen": 2815,
      "Ġpotenti": 2816,
      "Ġstatistically": 2817,
      "All": 2818,
      "Ġhistory": 2819,
      "Ġdistinc": 2820,
      "Ġhypot": 2821,
      "Ġaltern": 2822,
      "Ġconsider": 2823,
      "Ġpoly": 2824,
      "Ġher": 2825,
      "Ġquantit": 2826,
      "luded": 2827,
      "ument": 2828,
      "imal": 2829,
      "Ġmolecules": 2830,
      "urrence": 2831,
      "Ġadhe": 2832,
      "Ġreduce": 2833,
      "Ġfuture": 2834,
      "201": 2835,
      "CG": 2836,
      "Ġfrag": 2837,
      "Ġcentral": 2838,
      "Ġquantif": 2839,
      "Âłm": 2840,
      "Ġdirec": 2841,
      "Ġdetect": 2842,
      "ld": 2843,
      "Ġview": 2844,
      "IF": 2845,
      "ĠÃĹ": 2846,
      "Ġimplement": 2847,
      "Ġreference": 2848,
      "regulated": 2849,
      "Ġtransf": 2850,
      "orders": 2851,
      "48": 2852,
      "90": 2853,
      "Ġincubated": 2854,
      "arding": 2855,
      "Ġcharacterized": 2856,
      "Ġprep": 2857,
      "ĠEn": 2858,
      "enz": 2859,
      "42": 2860,
      "ĠIm": 2861,
      "ported": 2862,
      "Ġtechnique": 2863,
      "atients": 2864,
      "oratory": 2865,
      "rh": 2866,
      "Ġindicating": 2867,
      "Ġcapac": 2868,
      "Ġ\"": 2869,
      "Ġinflammatory": 2870,
      "Ġfile": 2871,
      "Ġdiscuss": 2872,
      "Ġskin": 2873,
      "Ġsynthesis": 2874,
      "Ġtyp": 2875,
      "ream": 2876,
      "ious": 2877,
      "priate": 2878,
      "Ġintro": 2879,
      "Ġ+/-": 2880,
      "Ġadministration": 2881,
      "Ġdatab": 2882,
      "Ġpower": 2883,
      "Ġ48": 2884,
      "Ġadult": 2885,
      "Ġsil": 2886,
      "EG": 2887,
      "Ġagg": 2888,
      "ologic": 2889,
      "Ġlarger": 2890,
      "Ġdamage": 2891,
      "Ġneut": 2892,
      "Ġguid": 2893,
      "âĢĬ=": 2894,
      "Ġlear": 2895,
      "reng": 2896,
      "Ġtesting": 2897,
      "Ġcop": 2898,
      "Ġrelatively": 2899,
      "Ġvacc": 2900,
      "Ġstatistical": 2901,
      "Ġscale": 2902,
      "aking": 2903,
      "ĠPA": 2904,
      "bers": 2905,
      "chem": 2906,
      "ECT": 2907,
      "iat": 2908,
      "Ġoste": 2909,
      "47": 2910,
      "CP": 2911,
      "Ġyoung": 2912,
      "Ġunderstanding": 2913,
      "Ġrecorded": 2914,
      "ĠâĪĴ": 2915,
      "Ġrequire": 2916,
      "kn": 2917,
      "VA": 2918,
      "Ġhighest": 2919,
      "Ġconsum": 2920,
      "time": 2921,
      "vice": 2922,
      "Ch": 2923,
      "Ġphysi": 2924,
      "otor": 2925,
      "ĠCom": 2926,
      "Ġwhole": 2927,
      "Ġmaximum": 2928,
      "Ġintensity": 2929,
      "iversity": 2930,
      "Ġcritical": 2931,
      "Ġbro": 2932,
      "Ġemerg": 2933,
      "Ġstaining": 2934,
      "oxid": 2935,
      "%).": 2936,
      "Âł1": 2937,
      "CO": 2938,
      "Ġintrac": 2939,
      "Ġselection": 2940,
      "ytic": 2941,
      "St": 2942,
      "Ġsupplement": 2943,
      "Ġefficacy": 2944,
      "Ġplate": 2945,
      "urse": 2946,
      "Ġcost": 2947,
      "Ġchromos": 2948,
      "Ġtog": 2949,
      "Ġimage": 2950,
      "Ġneeded": 2951,
      "RA": 2952,
      "TT": 2953,
      "Ġmedian": 2954,
      "Ġdepend": 2955,
      "erate": 2956,
      "Ġcytok": 2957,
      "Ġstimulation": 2958,
      "Ġtogether": 2959,
      "%.": 2960,
      "Ġsetting": 2961,
      "orption": 2962,
      "see": 2963,
      "Ġprogression": 2964,
      "BAC": 2965,
      "Ġdoc": 2966,
      "Ġvariation": 2967,
      "Ġshe": 2968,
      "Ġreceptors": 2969,
      "Ġcommunity": 2970,
      "FP": 2971,
      "Ġ2010": 2972,
      "Ġprovides": 2973,
      "trol": 2974,
      "Ġmeans": 2975,
      "EN": 2976,
      "Ġfailure": 2977,
      "ĠMoreover": 2978,
      "aches": 2979,
      "Ġuseful": 2980,
      "Ġderived": 2981,
      "adi": 2982,
      "oplasm": 2983,
      "Ġrenal": 2984,
      "Ġprogn": 2985,
      "UND": 2986,
      "46": 2987,
      "Ġstreng": 2988,
      "Ġsoftware": 2989,
      "Ġdifficult": 2990,
      "43": 2991,
      "Ġpharm": 2992,
      "otox": 2993,
      "Ġ2013": 2994,
      "Ġinhibitor": 2995,
      "yr": 2996,
      "Ġanother": 2997,
      "Ġemploy": 2998,
      "ories": 2999,
      "Ġthough": 3000,
      "ĠER": 3001,
      "Ġair": 3002,
      "Ġey": 3003,
      "Ġalter": 3004,
      "group": 3005,
      "Ġ&": 3006,
      "Ġplants": 3007,
      "Ġestablished": 3008,
      "Ad": 3009,
      "ĠBi": 3010,
      "sh": 3011,
      "Ġ21": 3012,
      "RNAs": 3013,
      "anol": 3014,
      "Ġhost": 3015,
      "Ġcardiac": 3016,
      "Ġpaper": 3017,
      "Ġmetabolic": 3018,
      "Ġbacterial": 3019,
      "KGRO": 3020,
      "aired": 3021,
      "KGROUND": 3022,
      "ĠNa": 3023,
      "ney": 3024,
      "Ġpredicted": 3025,
      "Ġfit": 3026,
      "Ġadults": 3027,
      "Ġstar": 3028,
      "Ġproducts": 3029,
      "ii": 3030,
      "mediated": 3031,
      "Ġpan": 3032,
      "Ġfull": 3033,
      "Ġglob": 3034,
      "âĢī<": 3035,
      "Ġbest": 3036,
      "Ġabnormal": 3037,
      "Ġ2012": 3038,
      "Ġdisorders": 3039,
      "Ġsuccessful": 3040,
      "Ġscreening": 3041,
      "BACKGROUND": 3042,
      "emic": 3043,
      "ocyte": 3044,
      "Ġaff": 3045,
      "Ġlinear": 3046,
      "day": 3047,
      "Ġhal": 3048,
      "Ġcohort": 3049,
      "Ġappear": 3050,
      "ĠHealth": 3051,
      "Ġembry": 3052,
      "Ġenhanced": 3053,
      "hydro": 3054,
      "Ġprote": 3055,
      "ayed": 3056,
      "Ġinvas": 3057,
      "Ġalone": 3058,
      "estern": 3059,
      "Ġpractice": 3060,
      "Ġhead": 3061,
      "ĠPh": 3062,
      "ulating": 3063,
      "orith": 3064,
      "TA": 3065,
      "Ġvascular": 3066,
      "hol": 3067,
      "Ġ2011": 3068,
      "NO": 3069,
      "met": 3070,
      "oz": 3071,
      "Ġremains": 3072,
      "65": 3073,
      "Ġsynthe": 3074,
      "Ġpercentage": 3075,
      "Ġindicates": 3076,
      "Ġmedic": 3077,
      "Ġmatrix": 3078,
      "Ġintegr": 3079,
      "Ġcatal": 3080,
      "Ġ2014": 3081,
      "Ġconver": 3082,
      "Ġ28": 3083,
      "ps": 3084,
      "Ġdemonstrate": 3085,
      "bo": 3086,
      "Ġupon": 3087,
      "Ġtranscrip": 3088,
      "OB": 3089,
      "Ġinflammation": 3090,
      "DL": 3091,
      "imilar": 3092,
      "Ġapplication": 3093,
      "Ġsecre": 3094,
      "Ġessential": 3095,
      "aily": 3096,
      "Ġchemical": 3097,
      "Ġsyndrome": 3098,
      "ĠOur": 3099,
      "Ġmutation": 3100,
      "nai": 3101,
      "ocardi": 3102,
      "Ġleading": 3103,
      "ets": 3104,
      "Ġoxygen": 3105,
      "Ġparticularly": 3106,
      "Ġcluster": 3107,
      "Ġshowing": 3108,
      "Ġdil": 3109,
      "Ġanimal": 3110,
      "taining": 3111,
      "Ġoccurred": 3112,
      "Ġexerc": 3113,
      "Âłal": 3114,
      "Ġalgorith": 3115,
      "ings": 3116,
      "Ġbir": 3117,
      "Ġrelevant": 3118,
      "Ġ*": 3119,
      "tered": 3120,
      "Ġrather": 3121,
      "duce": 3122,
      "ipher": 3123,
      "Ġproportion": 3124,
      "Ġbuffer": 3125,
      "ocal": 3126,
      "Ġabund": 3127,
      "ibr": 3128,
      "Ġprotocol": 3129,
      "Ġcomplications": 3130,
      "ou": 3131,
      "57": 3132,
      "vari": 3133,
      "ded": 3134,
      "Ġsmok": 3135,
      "Ġiss": 3136,
      "Ġtaken": 3137,
      "Ġtechniques": 3138,
      "Ġinjection": 3139,
      "Ġepid": 3140,
      "reshold": 3141,
      "Ġstrategies": 3142,
      "Ġdig": 3143,
      "Ġrare": 3144,
      "entric": 3145,
      "âĢĶ": 3146,
      "Ġoral": 3147,
      "Ġsitu": 3148,
      "Ġdon": 3149,
      "Ġcult": 3150,
      "rm": 3151,
      "Ġaccess": 3152,
      "Ġrecently": 3153,
      "Ġinterp": 3154,
      "jective": 3155,
      "Ġcognitive": 3156,
      "rosis": 3157,
      "Ġstructural": 3158,
      "Ġappropriate": 3159,
      "Ġacet": 3160,
      "eed": 3161,
      "ĠMD": 3162,
      "ipp": 3163,
      "agne": 3164,
      "rup": 3165,
      "Ġear": 3166,
      "rit": 3167,
      "Ġimportance": 3168,
      "Ġcountries": 3169,
      "41": 3170,
      "Ġnm": 3171,
      "stric": 3172,
      "Ġhaving": 3173,
      "Ġcut": 3174,
      "izes": 3175,
      "Ġrepro": 3176,
      "Ġaction": 3177,
      "67": 3178,
      "PC": 3179,
      "Ġdegree": 3180,
      "ovascular": 3181,
      "Ġobes": 3182,
      "Ġacids": 3183,
      "Ġendot": 3184,
      "Ġaround": 3185,
      "Ġdistinct": 3186,
      "Ġ2015": 3187,
      "SS": 3188,
      "ogenous": 3189,
      "by": 3190,
      "Ġcapacity": 3191,
      "Ġlit": 3192,
      "acts": 3193,
      "MT": 3194,
      "Ġglyc": 3195,
      "monary": 3196,
      "Ġseries": 3197,
      "lish": 3198,
      "eg": 3199,
      "for": 3200,
      "ective": 3201,
      "ĠCR": 3202,
      "Ġcm": 3203,
      "ape": 3204,
      "Ġmel": 3205,
      "ame": 3206,
      "Ġlast": 3207,
      "Ġprost": 3208,
      "Ġreli": 3209,
      "Ġmeasurement": 3210,
      "ifically": 3211,
      "Ġbelow": 3212,
      "Ġ2009": 3213,
      "Ġsource": 3214,
      "opro": 3215,
      "Ġkinase": 3216,
      "Ġhome": 3217,
      "Ġbasis": 3218,
      "tt": 3219,
      "Ġinternal": 3220,
      "Ġpublished": 3221,
      "99": 3222,
      "AB": 3223,
      "ending": 3224,
      "Ġthick": 3225,
      "Ġmetabolism": 3226,
      "pr": 3227,
      "Ġlater": 3228,
      "Ġcomponent": 3229,
      "Ġbacteria": 3230,
      "Ġeng": 3231,
      "ool": 3232,
      "ili": 3233,
      "Ġconven": 3234,
      "Ġnuclear": 3235,
      "Ġrecru": 3236,
      "Ġlipid": 3237,
      "Ġregard": 3238,
      "JECT": 3239,
      "LC": 3240,
      "Ġ22": 3241,
      "erve": 3242,
      "Ġdaily": 3243,
      "LI": 3244,
      "yro": 3245,
      "Ġsignificance": 3246,
      "Ġdiagnostic": 3247,
      "ik": 3248,
      "icro": 3249,
      "Ġcontext": 3250,
      "brid": 3251,
      "Ġfluorescence": 3252,
      "Ġevolution": 3253,
      "aro": 3254,
      "ED": 3255,
      "Ġmainly": 3256,
      "Ġnatural": 3257,
      "Ġion": 3258,
      "Ġcho": 3259,
      "tex": 3260,
      "Ġnumbers": 3261,
      "hood": 3262,
      "inated": 3263,
      "Ġexperience": 3264,
      "Ġmacroph": 3265,
      "ochemical": 3266,
      "Ġ,": 3267,
      "CH": 3268,
      "Ġstable": 3269,
      "occ": 3270,
      "itude": 3271,
      "Ġfram": 3272,
      "estinal": 3273,
      "asts": 3274,
      "orn": 3275,
      "ges": 3276,
      "usted": 3277,
      "Ġmagn": 3278,
      "Ġinfected": 3279,
      "Ġinduction": 3280,
      "ingly": 3281,
      "Ġnecessary": 3282,
      "Ġ35": 3283,
      "Ġprepared": 3284,
      "lus": 3285,
      "Ġstem": 3286,
      "Ġimprovement": 3287,
      "ystem": 3288,
      "Ġcoe": 3289,
      "Ġinfections": 3290,
      "AA": 3291,
      "ct": 3292,
      "Ġdistance": 3293,
      "Ġcryst": 3294,
      "pect": 3295,
      "Ġ90": 3296,
      "uter": 3297,
      "rees": 3298,
      "iving": 3299,
      "Con": 3300,
      "Ġfraction": 3301,
      "icial": 3302,
      "EC": 3303,
      "raw": 3304,
      "Ġpeptide": 3305,
      "ights": 3306,
      "Ġlike": 3307,
      ".[": 3308,
      "Ġthreshold": 3309,
      "ched": 3310,
      "Ġtreatments": 3311,
      "Ġviral": 3312,
      "iatric": 3313,
      "Ġspati": 3314,
      "Ġinduc": 3315,
      "Ġvariable": 3316,
      "Ġperipher": 3317,
      "Ġreports": 3318,
      "Ġantigen": 3319,
      "Ġagents": 3320,
      "less": 3321,
      "yg": 3322,
      "Ġregarding": 3323,
      "positive": 3324,
      "ique": 3325,
      "Ġassum": 3326,
      "Ġolder": 3327,
      "Ġbound": 3328,
      "JECTIV": 3329,
      "55": 3330,
      "Ġsubsequent": 3331,
      "Ġmar": 3332,
      "ground": 3333,
      "isms": 3334,
      "Ġpor": 3335,
      "sized": 3336,
      "aling": 3337,
      "Ġrestric": 3338,
      "Ġpolymer": 3339,
      "Ġinst": 3340,
      "omas": 3341,
      "Ġenvironmental": 3342,
      "Although": 3343,
      "obl": 3344,
      "Ġaccuracy": 3345,
      "Ġelevated": 3346,
      "Ġstrategy": 3347,
      "Ġachieved": 3348,
      "uct": 3349,
      "Ex": 3350,
      "Ġ80": 3351,
      "Ġexamination": 3352,
      "ophil": 3353,
      "Ġproblem": 3354,
      "Ġcontribute": 3355,
      "Ġenhance": 3356,
      "ĠCo": 3357,
      "land": 3358,
      "Ġprocedures": 3359,
      "range": 3360,
      "Ġapproaches": 3361,
      "Ġdesigned": 3362,
      "ĠCH": 3363,
      "Ġevery": 3364,
      "ples": 3365,
      "Ġcall": 3366,
      "Ġseed": 3367,
      "den": 3368,
      "outh": 3369,
      "SC": 3370,
      "OH": 3371,
      "Ġnutri": 3372,
      "otyp": 3373,
      "Âł2": 3374,
      "EP": 3375,
      "Ġprocessing": 3376,
      "Âł0": 3377,
      "Ġway": 3378,
      "Ġdegrad": 3379,
      "Ġshif": 3380,
      "ycin": 3381,
      "oids": 3382,
      "etal": 3383,
      "free": 3384,
      "Ġcontinuous": 3385,
      "Ġge": 3386,
      "com": 3387,
      "be": 3388,
      "ching": 3389,
      "Ġconfirm": 3390,
      "Ġsurvey": 3391,
      "Ġalpha": 3392,
      "Ġmajority": 3393,
      "ĠPC": 3394,
      "ologies": 3395,
      "Ġdelivery": 3396,
      "Ġlocated": 3397,
      "Ġproblems": 3398,
      "Ġaden": 3399,
      "IR": 3400,
      "most": 3401,
      "rem": 3402,
      "Ġspectr": 3403,
      "imens": 3404,
      "ck": 3405,
      "Ġtherm": 3406,
      "Ġmust": 3407,
      "Ġalco": 3408,
      "itr": 3409,
      "Ġkid": 3410,
      "known": 3411,
      "Ġprofil": 3412,
      "ĠSD": 3413,
      "care": 3414,
      "Ġmes": 3415,
      "Ġuntil": 3416,
      "IC": 3417,
      "ociated": 3418,
      "orpor": 3419,
      "erved": 3420,
      "irus": 3421,
      "ĠAr": 3422,
      "Ġexercise": 3423,
      "anning": 3424,
      "Ġfacilit": 3425,
      "radi": 3426,
      "Ġlonger": 3427,
      "ĠâĢĵ": 3428,
      "take": 3429,
      "agnetic": 3430,
      "Ġ26": 3431,
      "Ġbur": 3432,
      "Ġunderlying": 3433,
      "Ġhypothesis": 3434,
      "vention": 3435,
      "aces": 3436,
      "Ġ2008": 3437,
      "OBJECTIV": 3438,
      "Ġinhibitors": 3439,
      "Ġlys": 3440,
      "odium": 3441,
      "Ġlayer": 3442,
      "Ġcoup": 3443,
      "Ġcourse": 3444,
      "Ġtransport": 3445,
      "Res": 3446,
      "hy": 3447,
      "omer": 3448,
      "NS": 3449,
      "Ġsignals": 3450,
      "ached": 3451,
      "Ġmalign": 3452,
      "Ġexposed": 3453,
      "Ġcarbon": 3454,
      "Ġinterventions": 3455,
      "que": 3456,
      "56": 3457,
      "troph": 3458,
      "Ġcontrolled": 3459,
      "Ġslight": 3460,
      "Ġdatas": 3461,
      "Ġdevi": 3462,
      "leep": 3463,
      "Ġmembers": 3464,
      "Ġeas": 3465,
      "ĠAP": 3466,
      "Ġrepresents": 3467,
      "ĠRT": 3468,
      "Ġquestionnai": 3469,
      "Ġrespir": 3470,
      "ĠAT": 3471,
      "Ġperce": 3472,
      "arv": 3473,
      "eness": 3474,
      "Ġtrig": 3475,
      "Ġfemales": 3476,
      "ĠIF": 3477,
      "bial": 3478,
      "Here": 3479,
      "Ġangi": 3480,
      "bs": 3481,
      "igned": 3482,
      "Ġerror": 3483,
      "LR": 3484,
      "Ġefficiency": 3485,
      "yst": 3486,
      "inity": 3487,
      "cepti": 3488,
      "Ġattrib": 3489,
      "Ġassays": 3490,
      "emi": 3491,
      "arily": 3492,
      "umin": 3493,
      "au": 3494,
      "roc": 3495,
      "ĠSp": 3496,
      "Ġbeta": 3497,
      "Ġrecomb": 3498,
      "oscop": 3499,
      "Ġcertain": 3500,
      "icians": 3501,
      "Ġmemory": 3502,
      "function": 3503,
      "PV": 3504,
      "Ġidentification": 3505,
      "Ġantibio": 3506,
      "istry": 3507,
      "Ġovere": 3508,
      "Ġevent": 3509,
      "equ": 3510,
      "Ġunderwent": 3511,
      "Ġsubstanti": 3512,
      "Ġonset": 3513,
      "Ġtend": 3514,
      "Ġ2007": 3515,
      "Ġdele": 3516,
      "eling": 3517,
      "Ġdepression": 3518,
      "idity": 3519,
      "Ġstability": 3520,
      "ĠUniversity": 3521,
      "Ġhyperten": 3522,
      "Ġtempor": 3523,
      "Ġ29": 3524,
      "stream": 3525,
      "tag": 3526,
      "itrogen": 3527,
      "Ġmitochondrial": 3528,
      "off": 3529,
      "Ġinduce": 3530,
      "inflamm": 3531,
      "âĢħ": 3532,
      "Ġstudents": 3533,
      "Ġactivated": 3534,
      "Ġrepl": 3535,
      "Ġrespond": 3536,
      "Ġmamm": 3537,
      "Ġmales": 3538,
      "esthe": 3539,
      "Ġdiagnosed": 3540,
      "Ġtren": 3541,
      "osts": 3542,
      "Ġbo": 3543,
      "urb": 3544,
      "inical": 3545,
      "ylated": 3546,
      "romb": 3547,
      "Ġcauses": 3548,
      "Ġmarked": 3549,
      "Ġlaboratory": 3550,
      "Ġphosphorylation": 3551,
      "Ġlearning": 3552,
      "Ġhalf": 3553,
      "ĠOne": 3554,
      "Ġalternative": 3555,
      "Ġtool": 3556,
      "Ġdouble": 3557,
      "Ġdivid": 3558,
      "Ġpharmac": 3559,
      "Ġstages": 3560,
      "Ġeducation": 3561,
      "terol": 3562,
      "Ġcomm": 3563,
      "Ġpromoter": 3564,
      "ats": 3565,
      "mediate": 3566,
      "Ġmarker": 3567,
      "NT": 3568,
      "lob": 3569,
      "ometry": 3570,
      "regulation": 3571,
      "umn": 3572,
      "ict": 3573,
      "Ġadverse": 3574,
      "Ġphenotype": 3575,
      "Ġartery": 3576,
      "CF": 3577,
      "Ġbr": 3578,
      "eled": 3579,
      "Ġresour": 3580,
      "osa": 3581,
      "Ġsubstrate": 3582,
      "ĠData": 3583,
      "ditionally": 3584,
      "Ġwall": 3585,
      "anal": 3586,
      "RS": 3587,
      "bb": 3588,
      "88": 3589,
      "Ġagree": 3590,
      "Ġdiscussed": 3591,
      "Ġaccumulation": 3592,
      "Ġ2016": 3593,
      "Ġsequencing": 3594,
      "ĠStud": 3595,
      "Ġavoid": 3596,
      "bral": 3597,
      "plantation": 3598,
      "sia": 3599,
      "alk": 3600,
      "Ġfer": 3601,
      "Ġche": 3602,
      "Ġhyd": 3603,
      "Ġelectron": 3604,
      "ĠWT": 3605,
      "Ġbroad": 3606,
      "Ġ70": 3607,
      "mitted": 3608,
      "Ġexhibited": 3609,
      "Ġundergo": 3610,
      "Ġ45": 3611,
      "Ġtoler": 3612,
      "SH": 3613,
      "Ġ23": 3614,
      "ĠAg": 3615,
      "Ġglobal": 3616,
      "ĠCell": 3617,
      "Ġextent": 3618,
      "Ġaccount": 3619,
      "itions": 3620,
      "Ġhighl": 3621,
      "Ġcarcinoma": 3622,
      "Ġperipheral": 3623,
      "IL": 3624,
      "Ġstrongly": 3625,
      "Ġprofile": 3626,
      "Ġvector": 3627,
      "Ġversion": 3628,
      "Ġchalleng": 3629,
      "Ġfixed": 3630,
      "Ġprepar": 3631,
      "GG": 3632,
      "olved": 3633,
      "BD": 3634,
      "Ġpulmonary": 3635,
      "Ġ27": 3636,
      "Ġconfidence": 3637,
      "Ġsimple": 3638,
      "Ġresidues": 3639,
      "Ġmixed": 3640,
      "Ġcompare": 3641,
      "Ġinhibited": 3642,
      "aring": 3643,
      "Ġdependent": 3644,
      "Ġpref": 3645,
      "associated": 3646,
      "ĠInc": 3647,
      "NPs": 3648,
      "ects": 3649,
      "ton": 3650,
      "ĠSe": 3651,
      "Ġinser": 3652,
      "AM": 3653,
      "Ġmuc": 3654,
      "ancre": 3655,
      "Ġforms": 3656,
      "Ġhorm": 3657,
      "etic": 3658,
      "Ġdiamet": 3659,
      "Ġextracted": 3660,
      "Ġsci": 3661,
      "Ġchain": 3662,
      "atives": 3663,
      "years": 3664,
      "Ġreason": 3665,
      "Ġdatabase": 3666,
      "roke": 3667,
      "ils": 3668,
      "Ġphysiological": 3669,
      "âĢīÂ±": 3670,
      "Ġimpair": 3671,
      "Ġconstant": 3672,
      "68": 3673,
      "Ġspecificity": 3674,
      "Ġmake": 3675,
      "Ġintracellular": 3676,
      "Ġthird": 3677,
      "Ã©": 3678,
      "Ġepithelial": 3679,
      "Ġwhat": 3680,
      "Ġstrength": 3681,
      "Ġdeveloping": 3682,
      "Ġroom": 3683,
      "Ġproduce": 3684,
      "Ġmotor": 3685,
      "ope": 3686,
      "Ġenzymes": 3687,
      "Se": 3688,
      "Ġuptake": 3689,
      "oster": 3690,
      "Ġspecial": 3691,
      "Ġalcohol": 3692,
      "arent": 3693,
      "Ġsuscepti": 3694,
      "Ġproduct": 3695,
      "Ġtransmission": 3696,
      "Ġweak": 3697,
      "Ġgenerally": 3698,
      "cm": 3699,
      "Ġleads": 3700,
      "On": 3701,
      "Ġsleep": 3702,
      "Ġsensitive": 3703,
      "Ġpotentially": 3704,
      "Ġparas": 3705,
      "Ġcontact": 3706,
      "Ġpregnancy": 3707,
      "Ġnoted": 3708,
      "Ġgenomic": 3709,
      "Ġunique": 3710,
      "Ġsearch": 3711,
      "Ġsee": 3712,
      "Ġultr": 3713,
      "ĠWhen": 3714,
      "Ġexamine": 3715,
      "ĠÂ°": 3716,
      "OD": 3717,
      "aries": 3718,
      "At": 3719,
      "GFR": 3720,
      "dim": 3721,
      "ĠÏ": 3722,
      "spective": 3723,
      "ĠCS": 3724,
      "BM": 3725,
      "Ġmodified": 3726,
      "use": 3727,
      "Ġchlor": 3728,
      "ars": 3729,
      "Ġcomposition": 3730,
      "Ġnor": 3731,
      "85": 3732,
      "rolog": 3733,
      "otide": 3734,
      "Ġslow": 3735,
      "Ġfract": 3736,
      "Ġsafety": 3737,
      "HR": 3738,
      "xt": 3739,
      "Ġrecovery": 3740,
      "Ġcorrec": 3741,
      "Ġtargets": 3742,
      "ww": 3743,
      "stim": 3744,
      "isc": 3745,
      "Ġrun": 3746,
      "HC": 3747,
      "Ġseverity": 3748,
      "Ġvariants": 3749,
      "Ġoccurs": 3750,
      "ĠIII": 3751,
      "Ġdisorder": 3752,
      "Ġenti": 3753,
      "Ġchemotherapy": 3754,
      "Ġbase": 3755,
      "Ġâī¥": 3756,
      "ĠAc": 3757,
      "Ġdomains": 3758,
      "ĠNo": 3759,
      "elines": 3760,
      "Ġcommonly": 3761,
      "Ġmoderate": 3762,
      "Ġadvant": 3763,
      "Ġrob": 3764,
      "ometric": 3765,
      "amic": 3766,
      "ula": 3767,
      "ancer": 3768,
      "iting": 3769,
      "66": 3770,
      "Ġcalcium": 3771,
      "Ġusually": 3772,
      "sec": 3773,
      "Ġdone": 3774,
      "Ġheterogene": 3775,
      "inflammatory": 3776,
      "Ġcultured": 3777,
      "Ġmigration": 3778,
      "Ġcannot": 3779,
      "hers": 3780,
      "Ġintake": 3781,
      "ĠOR": 3782,
      "Ġcardiovascular": 3783,
      "urg": 3784,
      "Ġaged": 3785,
      "PI": 3786,
      "Ġled": 3787,
      "Ġdoses": 3788,
      "Ġow": 3789,
      "Ġfluid": 3790,
      "Ġtw": 3791,
      "Ġfind": 3792,
      "Ġendothelial": 3793,
      "Ġgel": 3794,
      "ophag": 3795,
      "Ġservices": 3796,
      "Ġspace": 3797,
      "After": 3798,
      "Ġdefin": 3799,
      "Ġblot": 3800,
      "Ġresponsible": 3801,
      "Ġlocation": 3802,
      "BC": 3803,
      "Î³": 3804,
      "ĠTNF": 3805,
      "Ġ).": 3806,
      "Ġquantitative": 3807,
      "ĠGen": 3808,
      "ote": 3809,
      "Ġmaterials": 3810,
      "Ġmonitoring": 3811,
      "Ġsection": 3812,
      "Ġent": 3813,
      "ĠCol": 3814,
      "Ġfeed": 3815,
      "Ġlate": 3816,
      "Ġothers": 3817,
      "Ġkidney": 3818,
      "Ġupper": 3819,
      "Ġgeneration": 3820,
      "Ġturn": 3821,
      "rospec": 3822,
      "phosph": 3823,
      "Ġcore": 3824,
      "ĠIV": 3825,
      "Ġvit": 3826,
      "Ġlittle": 3827,
      "ergic": 3828,
      "did": 3829,
      "ĠSimilar": 3830,
      "Ġleuk": 3831,
      "urop": 3832,
      "Ġfrequently": 3833,
      "Ġnerve": 3834,
      "Ġappears": 3835,
      "Ġ2006": 3836,
      "Ġconstit": 3837,
      "Ġoverex": 3838,
      "genic": 3839,
      "Ġalgorithm": 3840,
      "Ġdegradation": 3841,
      "inate": 3842,
      "elling": 3843,
      "Ġbind": 3844,
      "sis": 3845,
      "Ġstates": 3846,
      "89": 3847,
      "Ġconventional": 3848,
      "ĠSh": 3849,
      "Ġbiop": 3850,
      "Ġimm": 3851,
      "Ġisolates": 3852,
      "Ġworld": 3853,
      "Ġspatial": 3854,
      "Ġglut": 3855,
      "Ġdefici": 3856,
      "Ġden": 3857,
      "plicated": 3858,
      "Âł3": 3859,
      "olec": 3860,
      "ternal": 3861,
      "Ġbecome": 3862,
      "PR": 3863,
      "Ġfar": 3864,
      "87": 3865,
      "Ġpancre": 3866,
      "Ġsections": 3867,
      "Am": 3868,
      "Ġful": 3869,
      "ĠRec": 3870,
      "Ġcandid": 3871,
      "Ġreactions": 3872,
      "week": 3873,
      "Ġknock": 3874,
      "ĠThey": 3875,
      "eral": 3876,
      "dle": 3877,
      "Ġcoli": 3878,
      "Ġrol": 3879,
      "Ġbias": 3880,
      "olesterol": 3881,
      "wise": 3882,
      "Ġbio": 3883,
      "onary": 3884,
      "Ġpig": 3885,
      "Ġnow": 3886,
      "ged": 3887,
      "Ġhumans": 3888,
      "Ġlas": 3889,
      "ecause": 3890,
      "Ġremoved": 3891,
      "GE": 3892,
      "osp": 3893,
      "ibility": 3894,
      "iety": 3895,
      "Ġincorpor": 3896,
      "Ġcultures": 3897,
      "Ġassemb": 3898,
      "Ġremained": 3899,
      "Ġnature": 3900,
      "Ġestimate": 3901,
      "ccording": 3902,
      "Ġformed": 3903,
      "Ġyet": 3904,
      "Ġexcluded": 3905,
      "jected": 3906,
      "Ġrepeated": 3907,
      "oral": 3908,
      "DM": 3909,
      "ished": 3910,
      "Ġradiation": 3911,
      "Ġfast": 3912,
      "Ġdescribe": 3913,
      "ĠAL": 3914,
      "Ġconcern": 3915,
      "Ġcurve": 3916,
      "obacter": 3917,
      "Ġgran": 3918,
      "orts": 3919,
      "Ġwhite": 3920,
      "Ġrespect": 3921,
      "DH": 3922,
      "ta": 3923,
      "(-": 3924,
      "Ġwidely": 3925,
      "Ġsoci": 3926,
      "Ġvariety": 3927,
      "OC": 3928,
      "yroid": 3929,
      "def": 3930,
      "TR": 3931,
      "Ġfibro": 3932,
      "Ġpolymorph": 3933,
      "Ġobtain": 3934,
      "Supplementary": 3935,
      "Ġmental": 3936,
      "activity": 3937,
      "54": 3938,
      "Ġinput": 3939,
      "atient": 3940,
      "istent": 3941,
      "Ġmedia": 3942,
      "Ġattention": 3943,
      "terest": 3944,
      "Ġvary": 3945,
      "epend": 3946,
      "Ġfav": 3947,
      "jug": 3948,
      "Ġventric": 3949,
      "Ġbackground": 3950,
      "ĠPBS": 3951,
      "aster": 3952,
      "51": 3953,
      "down": 3954,
      "Ġstroke": 3955,
      "Ġwide": 3956,
      "alle": 3957,
      "Ġplaced": 3958,
      "Ġinterview": 3959,
      "apping": 3960,
      "Ġprinc": 3961,
      "Ġregulatory": 3962,
      "test": 3963,
      "Ġvess": 3964,
      "Ġrespiratory": 3965,
      "Ġextract": 3966,
      "Ġ2000": 3967,
      "Ġmanner": 3968,
      "Ġoptimal": 3969,
      "Ġhybrid": 3970,
      "Ġsmaller": 3971,
      "apan": 3972,
      "Ġoxidative": 3973,
      "neum": 3974,
      "crib": 3975,
      "63": 3976,
      "ĠGerm": 3977,
      "Ġthroughout": 3978,
      "Ġobservation": 3979,
      "Ġclose": 3980,
      "back": 3981,
      "ĠPT": 3982,
      "Ġcortex": 3983,
      "69": 3984,
      "tiveness": 3985,
      "Ġadi": 3986,
      "Ġconsumption": 3987,
      "FA": 3988,
      "rog": 3989,
      "âĢīÎ¼": 3990,
      "ĠChina": 3991,
      "Ġster": 3992,
      "gi": 3993,
      "rip": 3994,
      "eta": 3995,
      "Ġpostoperative": 3996,
      "Ġlateral": 3997,
      "ariate": 3998,
      "Ġnur": 3999,
      "Ġconse": 4000,
      "ash": 4001,
      "Ġprop": 4002,
      "Ġanterior": 4003,
      "Ġsubun": 4004,
      "tile": 4005,
      "Ġbirth": 4006,
      "Ġunknown": 4007,
      "iral": 4008,
      "64": 4009,
      "derived": 4010,
      "Ġalmost": 4011,
      "IT": 4012,
      "Ġold": 4013,
      "Ġgender": 4014,
      "Ġrepair": 4015,
      "52": 4016,
      "Ġmacrophages": 4017,
      "nm": 4018,
      "Ġminutes": 4019,
      "Ġbelie": 4020,
      "Ġhypertension": 4021,
      "Ġaggreg": 4022,
      "Ġadministered": 4023,
      "ĠSci": 4024,
      "rief": 4025,
      "Ġ2005": 4026,
      "otal": 4027,
      "Ġtreat": 4028,
      "aves": 4029,
      "rep": 4030,
      "//": 4031,
      "lation": 4032,
      "Ġolig": 4033,
      "ĠĠĠĠĠĠĠĠ": 4034,
      "Ġunit": 4035,
      "Ġelements": 4036,
      "ĠLe": 4037,
      "Ġmeta": 4038,
      "Ġcolumn": 4039,
      "Ġpanel": 4040,
      "mod": 4041,
      "Ġbarri": 4042,
      "ĠAmeric": 4043,
      "Ġdiameter": 4044,
      "EL": 4045,
      "Ġmicroscopy": 4046,
      "Ġrelationships": 4047,
      "Ġmutants": 4048,
      "Ġfamil": 4049,
      "Ġtransition": 4050,
      "ounts": 4051,
      "Ġclassification": 4052,
      "ÎĶ": 4053,
      "ufact": 4054,
      "Ġobservations": 4055,
      "ifferen": 4056,
      "rine": 4057,
      "62": 4058,
      "Ġsystemic": 4059,
      "ĠNF": 4060,
      "Ġspecifically": 4061,
      "Ġsystematic": 4062,
      "ighted": 4063,
      "terestingly": 4064,
      "Ġestimates": 4065,
      "HA": 4066,
      "wide": 4067,
      "ĠIC": 4068,
      "Ġneural": 4069,
      "Ġprofiles": 4070,
      "+)": 4071,
      "Ġparticles": 4072,
      "Ġsmoking": 4073,
      "BI": 4074,
      "ĠÎĶ": 4075,
      "ĠAp": 4076,
      "GA": 4077,
      "Ġassociations": 4078,
      "Ġliqu": 4079,
      "Ġsodium": 4080,
      "ĠAf": 4081,
      "://": 4082,
      "59": 4083,
      "valent": 4084,
      "tation": 4085,
      "lier": 4086,
      "entific": 4087,
      "Ġcomplexes": 4088,
      "mentation": 4089,
      "ĠIf": 4090,
      "lear": 4091,
      "Ġrecommend": 4092,
      "Ġneeds": 4093,
      "Ġprobability": 4094,
      "gin": 4095,
      "Ġfully": 4096,
      "02": 4097,
      "asp": 4098,
      "OX": 4099,
      "lab": 4100,
      "77": 4101,
      "mic": 4102,
      "Ġapproved": 4103,
      "eti": 4104,
      "Ġdysfunction": 4105,
      "58": 4106,
      "cers": 4107,
      "Ġnumer": 4108,
      "Ġrequires": 4109,
      "Ġmanufact": 4110,
      "Ġdynamics": 4111,
      "erative": 4112,
      "Ġbil": 4113,
      "âĢīh": 4114,
      "Ġapplications": 4115,
      "Ġallows": 4116,
      "Ġarticle": 4117,
      "Ġdepos": 4118,
      "ID": 4119,
      "lim": 4120,
      "Ġentire": 4121,
      "Ġguidelines": 4122,
      "ultaneous": 4123,
      "Ġdivided": 4124,
      "Ġcoronary": 4125,
      "Ġtowards": 4126,
      "Ġcorrect": 4127,
      "cript": 4128,
      "Ġdecision": 4129,
      "Ġide": 4130,
      "ostic": 4131,
      "Ġsulf": 4132,
      "Ġischem": 4133,
      "Ġste": 4134,
      "isation": 4135,
      "inter": 4136,
      "Ġillustr": 4137,
      "ches": 4138,
      "ĠIgG": 4139,
      "Ġoverl": 4140,
      "Ġpast": 4141,
      "Ġorigin": 4142,
      "Ġunderstand": 4143,
      "utive": 4144,
      "ĠmL": 4145,
      "Ġperson": 4146,
      "sequently": 4147,
      "ifest": 4148,
      "ĠJapan": 4149,
      "Ġresolution": 4150,
      "Ġcoord": 4151,
      "Ġestablish": 4152,
      "ytes": 4153,
      "Ġlesion": 4154,
      "ott": 4155,
      "raz": 4156,
      "Ġsatis": 4157,
      "Ġcontained": 4158,
      "GFP": 4159,
      "Ġagreement": 4160,
      "Ġsqu": 4161,
      "Ġpen": 4162,
      "Ġforce": 4163,
      "Ġobesity": 4164,
      "Pro": 4165,
      "Ġdocument": 4166,
      "inations": 4167,
      "ĠPl": 4168,
      "Ġcompr": 4169,
      "ĠAND": 4170,
      "ĠWhile": 4171,
      "Ġcollection": 4172,
      "onstruc": 4173,
      "Ġbiomark": 4174,
      "Ġclearly": 4175,
      "ĠATP": 4176,
      "Ġ36": 4177,
      "Ġsampling": 4178,
      "erred": 4179,
      "ocl": 4180,
      "igma": 4181,
      "seud": 4182,
      "Ġ32": 4183,
      "Âłh": 4184,
      "Ġcurrently": 4185,
      "Ġnext": 4186,
      "CV": 4187,
      "Ġbenefit": 4188,
      "Â·": 4189,
      "Ġpurpose": 4190,
      "Ġmil": 4191,
      "Ġseven": 4192,
      "ĠHR": 4193,
      "Ġsoil": 4194,
      "86": 4195,
      "aria": 4196,
      "PP": 4197,
      "Ġthromb": 4198,
      "Ġemo": 4199,
      "Ġtoxicity": 4200,
      "Ġput": 4201,
      "Ġpossibility": 4202,
      "Ġacqui": 4203,
      "Ġvariability": 4204,
      "Ġobjective": 4205,
      "Ġlinked": 4206,
      "ella": 4207,
      "Ġadvanced": 4208,
      "Ġsi": 4209,
      "Ġremain": 4210,
      "ĠEurop": 4211,
      "Ġroot": 4212,
      "Ġinvolvement": 4213,
      "ococc": 4214,
      "uit": 4215,
      "ured": 4216,
      "Ġposterior": 4217,
      "Ġsets": 4218,
      "ogram": 4219,
      "Ġneuronal": 4220,
      "Ġsecretion": 4221,
      "espite": 4222,
      "Ġmediated": 4223,
      "Ġthickness": 4224,
      "Ġhis": 4225,
      "Ġreducing": 4226,
      "mol": 4227,
      "Ġphyl": 4228,
      "Ġcontains": 4229,
      "Ġtranscript": 4230,
      "Ġmagnetic": 4231,
      "ĠÎ¼g": 4232,
      "ening": 4233,
      "Ġbal": 4234,
      "Ġspecimens": 4235,
      "Ġsubstit": 4236,
      "ortic": 4237,
      "ĠSupplementary": 4238,
      "Ġadoles": 4239,
      "onucle": 4240,
      "Ġunits": 4241,
      "Ġcomparable": 4242,
      "Ġtransform": 4243,
      "Ġrout": 4244,
      "Ġprofession": 4245,
      "79": 4246,
      "ria": 4247,
      "Ġnanop": 4248,
      "Ġreproduc": 4249,
      "Ġeight": 4250,
      "73": 4251,
      "osyn": 4252,
      "Ġdiversity": 4253,
      "Ġsolid": 4254,
      "SM": 4255,
      "idine": 4256,
      "SE": 4257,
      "ĠDM": 4258,
      "Ġband": 4259,
      "Ġmixture": 4260,
      "Ġslightly": 4261,
      "Ġinhibitory": 4262,
      "Ġstimuli": 4263,
      "ĠTr": 4264,
      "Ġfollows": 4265,
      "Ġextracellular": 4266,
      "BL": 4267,
      "ensional": 4268,
      "immun": 4269,
      "Ġnear": 4270,
      "Ġ72": 4271,
      "amide": 4272,
      "osomes": 4273,
      "icle": 4274,
      "vision": 4275,
      "ept": 4276,
      "ĠIFN": 4277,
      "78": 4278,
      "Ġclassified": 4279,
      "Ġallowed": 4280,
      "Ġoriginal": 4281,
      "):": 4282,
      "Ġtemporal": 4283,
      "Ġroles": 4284,
      "Ġ2004": 4285,
      "eared": 4286,
      "Ġmechanical": 4287,
      "Ġwashed": 4288,
      "Ġrandomized": 4289,
      "link": 4290,
      "Ġbasal": 4291,
      "Ġquestions": 4292,
      "Ġsynap": 4293,
      "Ġpack": 4294,
      "ĠFe": 4295,
      "tely": 4296,
      "ĠAfric": 4297,
      "point": 4298,
      "Ġchromosome": 4299,
      "Ġfund": 4300,
      "Ġod": 4301,
      "ert": 4302,
      "Ġmill": 4303,
      "Ġinvestigation": 4304,
      "Ġremaining": 4305,
      "Ġ2017": 4306,
      "PT": 4307,
      "Ġaccept": 4308,
      "Ġmaternal": 4309,
      "alian": 4310,
      "Ġsufficient": 4311,
      "Ġincubation": 4312,
      "Ġmyocardi": 4313,
      "ĠRA": 4314,
      "ĠMA": 4315,
      "binding": 4316,
      "Ġnorm": 4317,
      "Ġconclusion": 4318,
      "Ġsources": 4319,
      "Ġmother": 4320,
      "No": 4321,
      "ire": 4322,
      "Ġpredom": 4323,
      "eli": 4324,
      "Ġapparent": 4325,
      "Ġ31": 4326,
      "econd": 4327,
      "Ġparameter": 4328,
      "Ġmiss": 4329,
      "Ġgreen": 4330,
      "Ġinterf": 4331,
      "Ġquestionnaire": 4332,
      "One": 4333,
      "Ġcholesterol": 4334,
      "ĠMRI": 4335,
      "Ġefficient": 4336,
      "âĢ²-": 4337,
      "ĠPI": 4338,
      "Ġspon": 4339,
      "Ġorth": 4340,
      "61": 4341,
      "Ġbran": 4342,
      "sess": 4343,
      "illary": 4344,
      "0001": 4345,
      "Ġpurified": 4346,
      "Ġemployed": 4347,
      "Ġplays": 4348,
      "terminal": 4349,
      "Ġprevention": 4350,
      "Ġnam": 4351,
      "ĠWith": 4352,
      "Ġchannel": 4353,
      "Ġ75": 4354,
      "atitis": 4355,
      "lick": 4356,
      "oot": 4357,
      "Ġdifferential": 4358,
      "ient": 4359,
      "ectomy": 4360,
      "Ġnetworks": 4361,
      "organ": 4362,
      "ifug": 4363,
      "phal": 4364,
      "Ġcontain": 4365,
      "itable": 4366,
      "Ġheat": 4367,
      "Ġsimultaneous": 4368,
      "US": 4369,
      "well": 4370,
      "Ġdespite": 4371,
      "Ġcompleted": 4372,
      "overed": 4373,
      "Ġflex": 4374,
      "OBJECTIVE": 4375,
      "Ġpairs": 4376,
      "Ġbond": 4377,
      "Ġcheck": 4378,
      "Ġdate": 4379,
      "Ġec": 4380,
      "ĠAR": 4381,
      "Ġng": 4382,
      "Ġ33": 4383,
      "Ġreach": 4384,
      "Ġfeature": 4385,
      "umb": 4386,
      "Ġcytokines": 4387,
      "Ġpneum": 4388,
      "Ġpromote": 4389,
      "OL": 4390,
      "Ġretrospec": 4391,
      "Ġliquid": 4392,
      "Rec": 4393,
      "Ġanx": 4394,
      "itud": 4395,
      "Ġplot": 4396,
      "Ġvariance": 4397,
      "Ġmaintained": 4398,
      "rehen": 4399,
      "fusion": 4400,
      "ways": 4401,
      "Ġhepat": 4402,
      "Ġcytoplasm": 4403,
      "Ġcosts": 4404,
      "Ġmild": 4405,
      "HD": 4406,
      "ĠInstit": 4407,
      "urs": 4408,
      "isons": 4409,
      "ÂłÎ¼": 4410,
      "Ġblue": 4411,
      "obic": 4412,
      "ĠPR": 4413,
      "Ġsubject": 4414,
      "bal": 4415,
      "ritis": 4416,
      "Ġfung": 4417,
      "vis": 4418,
      "Ġbehaviour": 4419,
      "ads": 4420,
      "tioned": 4421,
      "Ġreverse": 4422,
      "Ġprediction": 4423,
      "Ġcomparing": 4424,
      "Ġmetastasis": 4425,
      "Ġgenotype": 4426,
      "Ġmelan": 4427,
      "enge": 4428,
      "ĠInde": 4429,
      "Ġagent": 4430,
      "72": 4431,
      "Hz": 4432,
      "Ġinstr": 4433,
      "Im": 4434,
      "bor": 4435,
      "Ġsession": 4436,
      "Ġitems": 4437,
      "ica": 4438,
      "aph": 4439,
      "Ġpass": 4440,
      "03": 4441,
      "mia": 4442,
      "Ġminim": 4443,
      "Ġadjusted": 4444,
      "Ġexplained": 4445,
      "onia": 4446,
      "Ġexternal": 4447,
      "acement": 4448,
      "ises": 4449,
      "71": 4450,
      "ĠWestern": 4451,
      "Ġfin": 4452,
      "Ġrecommended": 4453,
      "Ġdynamic": 4454,
      "UC": 4455,
      "âī": 4456,
      "Ġratios": 4457,
      "Ġgenerate": 4458,
      "Ġantag": 4459,
      "98": 4460,
      "ĠBMI": 4461,
      "Ġlimitations": 4462,
      "Ġpool": 4463,
      "Ġpartial": 4464,
      "akes": 4465,
      "Ġallele": 4466,
      "Ġinvolving": 4467,
      "Ġtrigg": 4468,
      "DR": 4469,
      "Un": 4470,
      "Ġstained": 4471,
      "Ġtargeting": 4472,
      "Ġrelation": 4473,
      "Com": 4474,
      "Ġpeptides": 4475,
      "Ġexplain": 4476,
      "Ġleg": 4477,
      "Ġdeep": 4478,
      "Ġdevice": 4479,
      "Ġequal": 4480,
      "ogenetic": 4481,
      "Ġattem": 4482,
      "Ġped": 4483,
      "Ġantic": 4484,
      "Ġdiffer": 4485,
      "Ġfocused": 4486,
      "side": 4487,
      "ready": 4488,
      "Ġconserved": 4489,
      "Ġjoint": 4490,
      "romet": 4491,
      "control": 4492,
      "Ġven": 4493,
      "Ġreconstruc": 4494,
      "Ġpolic": 4495,
      "tured": 4496,
      "Ġsusp": 4497,
      "GT": 4498,
      "NC": 4499,
      "Ġaltered": 4500,
      "Patients": 4501,
      "Ġresear": 4502,
      "Ġtet": 4503,
      "oglob": 4504,
      "Ġiron": 4505,
      "Ġmovement": 4506,
      "PE": 4507,
      "Ġderiv": 4508,
      "ĠFinally": 4509,
      "Ġaddress": 4510,
      "Ġdeviation": 4511,
      "ocamp": 4512,
      "ĠEach": 4513,
      "tum": 4514,
      "osomal": 4515,
      "Ġspectrum": 4516,
      "everal": 4517,
      "used": 4518,
      "Ġshor": 4519,
      "ĠBl": 4520,
      "ME": 4521,
      "Ġantagon": 4522,
      "Ġplacebo": 4523,
      "Ġcompletely": 4524,
      "Ġeye": 4525,
      "Ġmotif": 4526,
      "oxide": 4527,
      "Ġcenter": 4528,
      "Ġearlier": 4529,
      "acent": 4530,
      "Ġseems": 4531,
      "Ġclusters": 4532,
      "Ġlaser": 4533,
      "Ġenrol": 4534,
      "Ġexcept": 4535,
      "Ġori": 4536,
      "igen": 4537,
      "Ġmolecule": 4538,
      "lin": 4539,
      "Ġextraction": 4540,
      "Ġexpressing": 4541,
      "Ġsperm": 4542,
      "Ġmorphology": 4543,
      "oe": 4544,
      "Ġspectra": 4545,
      "Ġnanopartic": 4546,
      "Ġtargeted": 4547,
      "ĠPre": 4548,
      "Ġselective": 4549,
      "76": 4550,
      "ocation": 4551,
      "Ġmetal": 4552,
      "ignific": 4553,
      "Ġrecurrence": 4554,
      "Ġdegrees": 4555,
      "Ġca": 4556,
      "Fs": 4557,
      "Ġble": 4558,
      "omatic": 4559,
      "Ġgrade": 4560,
      "zing": 4561,
      "Ġsubset": 4562,
      "Ġreceiving": 4563,
      "Ġrad": 4564,
      "tid": 4565,
      "Ġexce": 4566,
      "Ġprobe": 4567,
      "iform": 4568,
      "Ġdisrup": 4569,
      "Ġrobust": 4570,
      "Ġconcept": 4571,
      "Ġmode": 4572,
      "Ġalready": 4573,
      "ades": 4574,
      "tives": 4575,
      "AI": 4576,
      "Ġproxim": 4577,
      "heless": 4578,
      "Ġtraum": 4579,
      "Ġcancers": 4580,
      "Ġcollagen": 4581,
      "Ġown": 4582,
      "rence": 4583,
      "Ġdisplayed": 4584,
      "Ġproviding": 4585,
      "Ġremoval": 4586,
      "Ġliving": 4587,
      "ensive": 4588,
      "Ġreviewed": 4589,
      "Ġmonth": 4590,
      "Ġelim": 4591,
      "tility": 4592,
      "Ġer": 4593,
      "Ġq": 4594,
      "cal": 4595,
      "Ġexperienced": 4596,
      "ollow": 4597,
      "Ġgr": 4598,
      "Ġmethylation": 4599,
      "stead": 4600,
      "Ġalign": 4601,
      "Ġdirection": 4602,
      "84": 4603,
      "kele": 4604,
      "acted": 4605,
      "iltr": 4606,
      "mental": 4607,
      "pects": 4608,
      ".)": 4609,
      "wh": 4610,
      "BV": 4611,
      "Ġgastric": 4612,
      "lude": 4613,
      "Ġfusion": 4614,
      "Ġinteract": 4615,
      "ĠED": 4616,
      "mean": 4617,
      "Ġwound": 4618,
      "ĠGermany": 4619,
      "NOVA": 4620,
      "encing": 4621,
      "Ġhemat": 4622,
      "yle": 4623,
      "acet": 4624,
      "Ġindepend": 4625,
      "Ġwa": 4626,
      "Click": 4627,
      "Ac": 4628,
      "Ġinstruc": 4629,
      "asons": 4630,
      "Ġconsent": 4631,
      "Ġcoefficient": 4632,
      "Ġendogenous": 4633,
      "Ġnodes": 4634,
      "uting": 4635,
      "osin": 4636,
      "treatment": 4637,
      "angu": 4638,
      "Ġincludes": 4639,
      "Ġauto": 4640,
      "GS": 4641,
      "Ġdetailed": 4642,
      "Ġinn": 4643,
      "quis": 4644,
      "Ġprognosis": 4645,
      "allel": 4646,
      "Ġnode": 4647,
      "Ġrecognition": 4648,
      "ĠNS": 4649,
      "Ġabundance": 4650,
      "ĠâĪ": 4651,
      "Ġcre": 4652,
      "ĠNO": 4653,
      "Ġfatty": 4654,
      "HS": 4655,
      "Ġml": 4656,
      "ĠUS": 4657,
      "ework": 4658,
      "abor": 4659,
      "Ġreflect": 4660,
      "Ġsummar": 4661,
      "Ġcomplement": 4662,
      "Ġclinically": 4663,
      "oform": 4664,
      "raf": 4665,
      "FS": 4666,
      "Ġreplication": 4667,
      "Ġintestinal": 4668,
      "itively": 4669,
      "Ġcomprehen": 4670,
      "Ġchallenge": 4671,
      "iment": 4672,
      "Ġarth": 4673,
      "oprotein": 4674,
      "Ġsupported": 4675,
      "Ġgrown": 4676,
      "ifications": 4677,
      "Ġrepresentative": 4678,
      "Ġmembranes": 4679,
      "mitte": 4680,
      "Ġfamilies": 4681,
      "III": 4682,
      "Ġhab": 4683,
      "illed": 4684,
      "Ġaspects": 4685,
      "Ġchannels": 4686,
      "Ab": 4687,
      "ĠSince": 4688,
      "Ġask": 4689,
      "ĠGroup": 4690,
      "Ġreson": 4691,
      "Ġworking": 4692,
      "ĠSch": 4693,
      "Ġprobably": 4694,
      "Furthermore": 4695,
      "Ġ2003": 4696,
      "Ġintervals": 4697,
      "Ġmyel": 4698,
      "Ġaimed": 4699,
      "ippocamp": 4700,
      "Ġminimum": 4701,
      "Ġ'": 4702,
      "Ġreplic": 4703,
      "Ġcruc": 4704,
      "Ġachieve": 4705,
      "ĠNational": 4706,
      "ĠSP": 4707,
      "ozyg": 4708,
      "Ġtumour": 4709,
      "ĠMR": 4710,
      "Ġattenu": 4711,
      "Ġenter": 4712,
      "Ġanalysed": 4713,
      "keletal": 4714,
      "Ġmiddle": 4715,
      "Ġsteps": 4716,
      "Ġinstit": 4717,
      "Ġadop": 4718,
      "Ġdecl": 4719,
      "Ġmanufacture": 4720,
      "ods": 4721,
      "Ġchromat": 4722,
      "Ġneutral": 4723,
      "rest": 4724,
      "Ġqual": 4725,
      "dominal": 4726,
      "thal": 4727,
      "Âł4": 4728,
      "dimensional": 4729,
      "bly": 4730,
      "gg": 4731,
      "Ġcommerc": 4732,
      "Ġspl": 4733,
      "lets": 4734,
      "Ġfrequent": 4735,
      "Ġtom": 4736,
      "Ġrepresented": 4737,
      "Ġcentrifug": 4738,
      "ML": 4739,
      "Ġasym": 4740,
      "Ġinfants": 4741,
      "Ġconnec": 4742,
      "char": 4743,
      "Ġcytotox": 4744,
      "Ġsexual": 4745,
      "Ġcategories": 4746,
      "verall": 4747,
      "Ġshape": 4748,
      "Ġvaccine": 4749,
      "Ġtranscriptional": 4750,
      "96": 4751,
      "level": 4752,
      "Ġorient": 4753,
      "Ġaer": 4754,
      "Ġeffectiveness": 4755,
      "Ġpolar": 4756,
      "Ġann": 4757,
      "lyc": 4758,
      "Results": 4759,
      "Ġcolor": 4760,
      "aken": 4761,
      "Ġdiscrim": 4762,
      "Â®": 4763,
      "Îº": 4764,
      "Ġanalog": 4765,
      "ĠDi": 4766,
      "Ġcharacteristic": 4767,
      "04": 4768,
      "Ġcerebral": 4769,
      "83": 4770,
      "When": 4771,
      "load": 4772,
      "Ġhippocamp": 4773,
      "Ġrib": 4774,
      "jection": 4775,
      "Ġtypical": 4776,
      "Ġrandomly": 4777,
      "ided": 4778,
      "neg": 4779,
      "Ġspeed": 4780,
      "Ġcounter": 4781,
      "Ġalb": 4782,
      "IG": 4783,
      "ĠIndi": 4784,
      "Ġves": 4785,
      "Ġseparate": 4786,
      "Ġtake": 4787,
      "Ġinterpret": 4788,
      "ĠcDNA": 4789,
      "Two": 4790,
      "Ġregulated": 4791,
      "Ġexplore": 4792,
      "Ġmaking": 4793,
      "Ġsmo": 4794,
      "ttp": 4795,
      "Ġspinal": 4796,
      "Ġanxiety": 4797,
      "Ġwhose": 4798,
      "Ġcurves": 4799,
      "Ġantioxid": 4800,
      "imen": 4801,
      "Ġdog": 4802,
      "rium": 4803,
      "ĠNor": 4804,
      "oxy": 4805,
      "Ġacquired": 4806,
      "Ġgradi": 4807,
      "Ġhepatic": 4808,
      "Ġ500": 4809,
      "Ġplus": 4810,
      "Ġkine": 4811,
      "Ġmultiv": 4812,
      "Ġhouse": 4813,
      "Ġpredictive": 4814,
      "Ġissues": 4815,
      "81": 4816,
      "Ġsubgroup": 4817,
      "rac": 4818,
      "ĠHz": 4819,
      "Ġtechnology": 4820,
      "ĠÎ¼M": 4821,
      "BA": 4822,
      "Ġpel": 4823,
      "Ġminor": 4824,
      "Ġcomputed": 4825,
      "Ġoutput": 4826,
      "Ġimpl": 4827,
      "Ġschool": 4828,
      "try": 4829,
      "Ġnucleus": 4830,
      "kin": 4831,
      "Ġaccurate": 4832,
      "Ġresearc": 4833,
      "ero": 4834,
      "Ġfig": 4835,
      "infected": 4836,
      "Ġresources": 4837,
      "Ġmedication": 4838,
      "Ġhypothe": 4839,
      "Ġmarg": 4840,
      "ecutive": 4841,
      "ĠInterestingly": 4842,
      "Ġappeared": 4843,
      "Ġadhesion": 4844,
      "Ġensure": 4845,
      "Ġstabil": 4846,
      "Ġdietary": 4847,
      "Ġaffinity": 4848,
      "pm": 4849,
      "Ġcortical": 4850,
      "Ġphenomen": 4851,
      "Ġtools": 4852,
      "hold": 4853,
      "ped": 4854,
      "Ġbenefits": 4855,
      "IS": 4856,
      "Ġplates": 4857,
      "ember": 4858,
      "ologous": 4859,
      "effec": 4860,
      "Ġadequ": 4861,
      "Ġcytos": 4862,
      "ĠÎ¼m": 4863,
      "luores": 4864,
      "Ġprograms": 4865,
      "74": 4866,
      "onomic": 4867,
      "Ġlocalization": 4868,
      "ervical": 4869,
      "amma": 4870,
      "Ġarch": 4871,
      "ignificant": 4872,
      "Ġimpaired": 4873,
      "Ġlatter": 4874,
      "ĠPL": 4875,
      "Ġframework": 4876,
      "tices": 4877,
      "ah": 4878,
      "Ġvel": 4879,
      "Ġligand": 4880,
      "isp": 4881,
      "ĠCF": 4882,
      "ĠFirst": 4883,
      "âĢīmin": 4884,
      "otrop": 4885,
      "taneous": 4886,
      "Ġmanufacturer": 4887,
      "Ġdimension": 4888,
      "entral": 4889,
      "Ġemission": 4890,
      "Ġregular": 4891,
      "Ġprostate": 4892,
      "Ġ**": 4893,
      "Ġsuccessfully": 4894,
      "Ġtrend": 4895,
      "Ġpy": 4896,
      "resent": 4897,
      "Es": 4898,
      "ĠScale": 4899,
      "Ġoccup": 4900,
      "Ġequi": 4901,
      "EA": 4902,
      "ĠFurther": 4903,
      "Ġvitamin": 4904,
      "Ġanat": 4905,
      "With": 4906,
      "Ġcomparisons": 4907,
      "GC": 4908,
      "Ġfilter": 4909,
      "Ġsed": 4910,
      "ĠIR": 4911,
      "Ġhypox": 4912,
      "cribed": 4913,
      "Ġheight": 4914,
      "Ġsubc": 4915,
      "iring": 4916,
      "mediately": 4917,
      "Ġrapidly": 4918,
      "olecular": 4919,
      "ĠTB": 4920,
      "Ġimpairment": 4921,
      "Ġwave": 4922,
      "mo": 4923,
      "Ġgas": 4924,
      "itin": 4925,
      "Ġprimers": 4926,
      "OP": 4927,
      "tingu": 4928,
      "82": 4929,
      "Ġgain": 4930,
      "Ġdisch": 4931,
      "Ġinjected": 4932,
      "Ġtract": 4933,
      "Ġsensor": 4934,
      "Ġchoice": 4935,
      "osen": 4936,
      "Ġnormalized": 4937,
      "ĠResearch": 4938,
      "ĠAdditionally": 4939,
      "Ġinclusion": 4940,
      "ports": 4941,
      "xy": 4942,
      "Ġ34": 4943,
      "Ġethanol": 4944,
      "Ġinvasion": 4945,
      "orrh": 4946,
      "Ġimplementation": 4947,
      "Ġemph": 4948,
      "plate": 4949,
      "TL": 4950,
      "Ġassigned": 4951,
      "ĠSub": 4952,
      "Ph": 4953,
      "Ġintroduced": 4954,
      "Ġhydrogen": 4955,
      "Ġprognostic": 4956,
      "Ġpreparation": 4957,
      "%;": 4958,
      "mittee": 4959,
      "rade": 4960,
      "ĠOf": 4961,
      "97": 4962,
      "Ġalk": 4963,
      "Ġpredominant": 4964,
      "Ġtax": 4965,
      "Ġextrem": 4966,
      "negative": 4967,
      "ĠCV": 4968,
      "lectr": 4969,
      "EGF": 4970,
      "Ġhealthcare": 4971,
      "Ġonce": 4972,
      "Ġdistingu": 4973,
      "Ġbasic": 4974,
      "Ġprolong": 4975,
      "Ġfal": 4976,
      "Ġparallel": 4977,
      "Ġanesthe": 4978,
      "ician": 4979,
      "Ġbelong": 4980,
      "Ġventricular": 4981,
      "exp": 4982,
      "Ġmanus": 4983,
      "Ġoptical": 4984,
      "Ġbehavioral": 4985,
      "Ġfron": 4986,
      "sively": 4987,
      "Ġresistant": 4988,
      "Ġsatisf": 4989,
      "Ġasth": 4990,
      "articip": 4991,
      "Ġye": 4992,
      "axis": 4993,
      "Ġplasmid": 4994,
      "Ġcompl": 4995,
      "Ġoccurrence": 4996,
      "Ġecon": 4997,
      "Ġtransfected": 4998,
      "Ġdeficiency": 4999,
      "Ġamounts": 5000,
      "opathy": 5001,
      "Ġdataset": 5002,
      "))": 5003,
      "Ġtraditional": 5004,
      "Ġstimulus": 5005,
      "gu": 5006,
      "Ġthereby": 5007,
      "Ġadmission": 5008,
      "Ġcrucial": 5009,
      "Ġfish": 5010,
      "Ġgraph": 5011,
      "ĠTGF": 5012,
      "Using": 5013,
      "change": 5014,
      "Ġword": 5015,
      "EV": 5016,
      "son": 5017,
      "Ġnoise": 5018,
      "tial": 5019,
      "ydr": 5020,
      "ordance": 5021,
      "Ġprincip": 5022,
      "Ġpromising": 5023,
      "itone": 5024,
      "Ġirradi": 5025,
      "Ġshift": 5026,
      "Ġtypically": 5027,
      "ills": 5028,
      "Ġabsorption": 5029,
      "Ġneurolog": 5030,
      "ime": 5031,
      "Ġoil": 5032,
      "Ġsuitable": 5033,
      "ÎºB": 5034,
      "activation": 5035,
      "venous": 5036,
      "Ġseem": 5037,
      "ervation": 5038,
      "Ġfetal": 5039,
      "oded": 5040,
      "Ġpathogenesis": 5041,
      "Ġprospective": 5042,
      "rab": 5043,
      "Ġsigns": 5044,
      "Ġintermediate": 5045,
      "Ġdiabetic": 5046,
      "Ġsubsequently": 5047,
      "fl": 5048,
      "atter": 5049,
      "Ġviability": 5050,
      "Ġillness": 5051,
      "DA": 5052,
      "analysis": 5053,
      "uary": 5054,
      "totic": 5055,
      "Ġsuperior": 5056,
      "Ġalterations": 5057,
      "Ġsubjected": 5058,
      "Âł%": 5059,
      "Ġrecombinant": 5060,
      "po": 5061,
      "Ġmorb": 5062,
      "Ġexisting": 5063,
      "ĠPer": 5064,
      "ohist": 5065,
      "Ġtranscripts": 5066,
      "Ġcreat": 5067,
      "anted": 5068,
      "Ġdry": 5069,
      "Ġfibrobl": 5070,
      "Ġmyocardial": 5071,
      "portun": 5072,
      "Data": 5073,
      "era": 5074,
      "Ġtheory": 5075,
      "Ġfragment": 5076,
      "ema": 5077,
      "Ġmotion": 5078,
      "Ġland": 5079,
      "Ġ2002": 5080,
      "Ġcommunication": 5081,
      "ĠReg": 5082,
      "Ġaccel": 5083,
      "Ġcycles": 5084,
      "93": 5085,
      "Ġovari": 5086,
      "Ġsuppress": 5087,
      "Ġtit": 5088,
      "..": 5089,
      "Ġdraw": 5090,
      "ulatory": 5091,
      "Ġaxis": 5092,
      "Ġunclear": 5093,
      "ĠMT": 5094,
      "Ġcorrelations": 5095,
      "entical": 5096,
      "Ġnanoparticles": 5097,
      "Ġarterial": 5098,
      "utaneous": 5099,
      "Ġbreak": 5100,
      "Ġlist": 5101,
      "94": 5102,
      "Ġteam": 5103,
      "istant": 5104,
      "bre": 5105,
      "osome": 5106,
      "Ġcontribution": 5107,
      "Ġhormone": 5108,
      "gram": 5109,
      "Ġultras": 5110,
      "rogen": 5111,
      "Ġsolutions": 5112,
      "Pre": 5113,
      "ĠDe": 5114,
      "ĠAccording": 5115,
      "Ġ65": 5116,
      "Ġorganic": 5117,
      "ĠUnited": 5118,
      "Ġsettings": 5119,
      "Ġexact": 5120,
      "SR": 5121,
      "ĠPM": 5122,
      "Ġdefects": 5123,
      "Ġspontaneous": 5124,
      "LP": 5125,
      "oll": 5126,
      "Ġthought": 5127,
      "ensus": 5128,
      "Ġ38": 5129,
      "Ġtoxic": 5130,
      "Ġspread": 5131,
      "odyn": 5132,
      "Ġexpect": 5133,
      "Ġseparated": 5134,
      "Ġmanuscript": 5135,
      "asia": 5136,
      "Ġclosely": 5137,
      "Ġphosphate": 5138,
      "Ġindependently": 5139,
      "Ġbars": 5140,
      "Ġrh": 5141,
      "ĠUK": 5142,
      "ernat": 5143,
      "Ġparents": 5144,
      "ĠCons": 5145,
      "mi": 5146,
      "Ġprimarily": 5147,
      "Ġinvasive": 5148,
      "Ġangle": 5149,
      "Ġswit": 5150,
      "ĠROS": 5151,
      "Ġcervical": 5152,
      "luding": 5153,
      "Ġimmediately": 5154,
      "Ġsat": 5155,
      "Ġmaintain": 5156,
      "Ġperiods": 5157,
      "Ġperme": 5158,
      "Ġbiopsy": 5159,
      "Co": 5160,
      "Ġerrors": 5161,
      "roscopy": 5162,
      "Ġrabb": 5163,
      "arr": 5164,
      "tenance": 5165,
      "Ġdiverse": 5166,
      "Ġautophag": 5167,
      "Ġmalignant": 5168,
      "CN": 5169,
      "Ġdup": 5170,
      "Ġcompet": 5171,
      "Ġpathological": 5172,
      "hing": 5173,
      "Âł<": 5174,
      "Ġopportun": 5175,
      "Ġresection": 5176,
      "Ġblack": 5177,
      "Ġfore": 5178,
      "Ġencoding": 5179,
      "Ġalways": 5180,
      "Ġranging": 5181,
      "ĠHospital": 5182,
      "Ġoverexpression": 5183,
      "Thus": 5184,
      "Ġrecruit": 5185,
      "Ġannot": 5186,
      "ĠBoth": 5187,
      "Ġvaried": 5188,
      "Me": 5189,
      "Ġoperation": 5190,
      "ogens": 5191,
      "Ġsaline": 5192,
      "Ġdy": 5193,
      "Ġvariant": 5194,
      "Ġsizes": 5195,
      "Ġprotection": 5196,
      "Ġattributed": 5197,
      "Ġdistributed": 5198,
      "Ġprotective": 5199,
      "ori": 5200,
      "days": 5201,
      "Ġrequ": 5202,
      "Ġplat": 5203,
      "acc": 5204,
      "ĠLPS": 5205,
      "ĠME": 5206,
      "Ġclinic": 5207,
      "Ġfrequencies": 5208,
      "mark": 5209,
      "Ġtrue": 5210,
      "Ġdevelopmental": 5211,
      "Ġsubstantial": 5212,
      "patient": 5213,
      "Ġ42": 5214,
      "ION": 5215,
      "Âłyears": 5216,
      "Ġpositively": 5217,
      "Ġpancreatic": 5218,
      "olytic": 5219,
      "Ġdeple": 5220,
      "Ġvalidated": 5221,
      "Ġmis": 5222,
      "MB": 5223,
      "ĠAF": 5224,
      "Ġsimulation": 5225,
      "ĠCP": 5226,
      "Ġonto": 5227,
      "ĠBy": 5228,
      "ĠTwo": 5229,
      "ĠNot": 5230,
      "Ġtail": 5231,
      "ĠHS": 5232,
      "avage": 5233,
      "Ġmedicine": 5234,
      "Ġrecip": 5235,
      "YP": 5236,
      "Ġelectroph": 5237,
      "Ġfall": 5238,
      "Ġsurround": 5239,
      "Ġlargely": 5240,
      "sm": 5241,
      "Ġ96": 5242,
      "months": 5243,
      "Ġinitiation": 5244,
      "Ġlowest": 5245,
      "92": 5246,
      "Ġmove": 5247,
      "Ġdepth": 5248,
      "Ġmeasuring": 5249,
      "Ġsusceptibility": 5250,
      "Ġlact": 5251,
      "HT": 5252,
      "/âĪĴ": 5253,
      "Ġthor": 5254,
      "Ġlibr": 5255,
      "ronch": 5256,
      "Ġnucleotide": 5257,
      "Ġregulate": 5258,
      "Ġneon": 5259,
      "Ġtree": 5260,
      "Ġnational": 5261,
      "LS": 5262,
      "riched": 5263,
      "Ġburden": 5264,
      "dep": 5265,
      "Ġchosen": 5266,
      "ĠMedical": 5267,
      "Ġtolerance": 5268,
      "Ġnitrogen": 5269,
      "hal": 5270,
      "Ġplan": 5271,
      "ruc": 5272,
      "Is": 5273,
      "Of": 5274,
      "Ġservice": 5275,
      "position": 5276,
      "-(": 5277,
      "enari": 5278,
      "Ġdecreases": 5279,
      "erior": 5280,
      "Ġdisplay": 5281,
      "Ġinfarc": 5282,
      "Ġadjust": 5283,
      "Ġextracts": 5284,
      "encies": 5285,
      "tor": 5286,
      "asal": 5287,
      "Ġidentical": 5288,
      "Ġinfiltr": 5289,
      "Ġantim": 5290,
      "arrow": 5291,
      "Ġreached": 5292,
      "Ġextensive": 5293,
      "ips": 5294,
      "Ġdeletion": 5295,
      "Ġstri": 5296,
      "Ġtransplantation": 5297,
      "Ġloop": 5298,
      "Ġprecurs": 5299,
      "Ġsynthesized": 5300,
      "âĢī1": 5301,
      "get": 5302,
      "ucid": 5303,
      "ubiqu": 5304,
      "Ġinformed": 5305,
      "Ġdop": 5306,
      "adder": 5307,
      "Âłmin": 5308,
      "Ġgerm": 5309,
      "max": 5310,
      "olip": 5311,
      "Ġabnormalities": 5312,
      "mm": 5313,
      "sw": 5314,
      "Ġextended": 5315,
      "Ġmethyl": 5316,
      "Ġactin": 5317,
      "helium": 5318,
      "DP": 5319,
      "ump": 5320,
      "Ġdownstream": 5321,
      "Ġmicrobi": 5322,
      "Ġsem": 5323,
      "Ġgastro": 5324,
      "ng": 5325,
      "Ġaud": 5326,
      "ĠUV": 5327,
      "ĠSNPs": 5328,
      "night": 5329,
      "ĠHF": 5330,
      "Ġkit": 5331,
      "Ġfresh": 5332,
      "Ġreasons": 5333,
      "Ġquantified": 5334,
      "Ġ~": 5335,
      "Ġwind": 5336,
      "derly": 5337,
      "Ġ2001": 5338,
      "Ġpositions": 5339,
      "Ġmatter": 5340,
      "Ġmaintenance": 5341,
      "Ġrank": 5342,
      "Ġjust": 5343,
      "MC": 5344,
      "Ġwrit": 5345,
      "Ġgrowing": 5346,
      "ese": 5347,
      "Ġdors": 5348,
      "ĠAb": 5349,
      "ĠComp": 5350,
      "Ġbalance": 5351,
      "Ġcomput": 5352,
      "Ġresearchers": 5353,
      "ĠAnal": 5354,
      "Ġfeas": 5355,
      "Ca": 5356,
      "Ġpresentation": 5357,
      "with": 5358,
      "ĠDec": 5359,
      "rug": 5360,
      "Ġdrop": 5361,
      "Ġleaf": 5362,
      "Ġtransferred": 5363,
      "Ġsegment": 5364,
      "amb": 5365,
      "Ġvariations": 5366,
      "Ġmetabolites": 5367,
      "Ġfibrosis": 5368,
      "oked": 5369,
      "ospitals": 5370,
      "scale": 5371,
      "Ġstored": 5372,
      "Ġmap": 5373,
      "Ġvolt": 5374,
      "Ġcytokine": 5375,
      "Ġatom": 5376,
      "Ġtwice": 5377,
      "Ġyeast": 5378,
      "HP": 5379,
      "Ġads": 5380,
      "ansion": 5381,
      "Ġmagnitude": 5382,
      "ĠHD": 5383,
      "inese": 5384,
      "Ġdevices": 5385,
      "artment": 5386,
      "ows": 5387,
      "ĠPK": 5388,
      "Ġpal": 5389,
      "Ġschem": 5390,
      "Ġradical": 5391,
      "Ġindirect": 5392,
      "Ġfed": 5393,
      "ĠSystem": 5394,
      "Ġabdominal": 5395,
      "Ġbehaviors": 5396,
      "erated": 5397,
      "Ġsimulations": 5398,
      "Ġter": 5399,
      "ci": 5400,
      "methyl": 5401,
      "Ġstart": 5402,
      "Ġagon": 5403,
      "olute": 5404,
      "Ġcoverage": 5405,
      "luor": 5406,
      "Ġtherapies": 5407,
      "tious": 5408,
      "Ġmodification": 5409,
      "Ġconsisted": 5410,
      "orage": 5411,
      "ĠOther": 5412,
      "Ġreads": 5413,
      "Ġembryos": 5414,
      "Ġovarian": 5415,
      "Ġsupernat": 5416,
      "Ġgrad": 5417,
      "ancies": 5418,
      "Ġlangu": 5419,
      "Ġcord": 5420,
      "Ġfragments": 5421,
      "Ġresidual": 5422,
      "Ġ55": 5423,
      "roscopic": 5424,
      "otypic": 5425,
      "rs": 5426,
      "Ġdonor": 5427,
      "Ġresonance": 5428,
      "Ġaver": 5429,
      "Ġstimulated": 5430,
      "Ġintern": 5431,
      "ĠGFP": 5432,
      "Ġpseud": 5433,
      "Ġidenti": 5434,
      "month": 5435,
      "where": 5436,
      "Ġmeet": 5437,
      "Ġaccomp": 5438,
      "Ġonc": 5439,
      "rane": 5440,
      "no": 5441,
      "Ġarm": 5442,
      "ĠMe": 5443,
      "Ġbeneficial": 5444,
      "Ġmetastatic": 5445,
      "Ġdisp": 5446,
      "Ġplatform": 5447,
      "Ġions": 5448,
      "Ġcategor": 5449,
      "ament": 5450,
      "ĠHA": 5451,
      "Ġasthma": 5452,
      "ners": 5453,
      "Ġpolyp": 5454,
      "ls": 5455,
      "Ġtheore": 5456,
      "alpha": 5457,
      "Ġstaff": 5458,
      "ĠmiRNAs": 5459,
      "aterial": 5460,
      "oxyl": 5461,
      "generation": 5462,
      "Ġheterogeneity": 5463,
      "ĠSimilarly": 5464,
      "overn": 5465,
      "Ġadvantage": 5466,
      "Ġissue": 5467,
      "Ġmostly": 5468,
      "Ġtaking": 5469,
      "Ġcandidate": 5470,
      "Ġdistal": 5471,
      "Ġepis": 5472,
      "ĠmiRNA": 5473,
      "bp": 5474,
      "Ġaware": 5475,
      "Ġreferred": 5476,
      "Ġtube": 5477,
      "inus": 5478,
      "ĠAmong": 5479,
      "ĠNK": 5480,
      "Ġranged": 5481,
      "ging": 5482,
      "Ġviruses": 5483,
      "Ġmicroscope": 5484,
      "LISA": 5485,
      "Da": 5486,
      "Ġconstructed": 5487,
      "Ġchanged": 5488,
      "quences": 5489,
      "Ġanalyze": 5490,
      "Ġthermal": 5491,
      "Ġtable": 5492,
      "Âłmg": 5493,
      "Ġcy": 5494,
      "Ġpartially": 5495,
      "Ġbul": 5496,
      "ĠOr": 5497,
      "Ġamplitude": 5498,
      "enza": 5499,
      "Ġneutroph": 5500,
      "vascular": 5501,
      "ĠANOVA": 5502,
      "ban": 5503,
      "Ġfeedback": 5504,
      "ĠBe": 5505,
      "ĠLi": 5506,
      "activated": 5507,
      "theless": 5508,
      "ocity": 5509,
      "Ġdepending": 5510,
      "Ġmorbidity": 5511,
      "NK": 5512,
      "hyde": 5513,
      "91": 5514,
      "ĠSw": 5515,
      "isher": 5516,
      "Ġminimal": 5517,
      "Ġure": 5518,
      "Ġcalled": 5519,
      "Ġsequ": 5520,
      "Ġexpress": 5521,
      "ectors": 5522,
      "dehyde": 5523,
      "Ġperceived": 5524,
      "Ġaffects": 5525,
      "Ġrecognized": 5526,
      "Ġinoc": 5527,
      "articipants": 5528,
      "atch": 5529,
      "ayer": 5530,
      "Ġdetermination": 5531,
      "Ġhistological": 5532,
      "Ġreliable": 5533,
      "Ġfeeding": 5534,
      "chym": 5535,
      "Ġcarry": 5536,
      "opic": 5537,
      "Re": 5538,
      "Ġoxidation": 5539,
      "ottom": 5540,
      "Ġrecording": 5541,
      "Ġexpansion": 5542,
      "Ġdiver": 5543,
      "Ġpersonal": 5544,
      "ĠCd": 5545,
      "ĠBecause": 5546,
      "Ġmilk": 5547,
      "Ġretrospective": 5548,
      "quisition": 5549,
      "Ġ150": 5550,
      "icrobial": 5551,
      "apse": 5552,
      "Ġhaem": 5553,
      "ĠChinese": 5554,
      "Ġrecords": 5555,
      "Ġantibiotic": 5556,
      "Ġ#": 5557,
      "Ġce": 5558,
      "sian": 5559,
      "Ġsimilarity": 5560,
      "Ġinfluenced": 5561,
      "Ġurine": 5562,
      "Ġgest": 5563,
      "illin": 5564,
      "Ġthyroid": 5565,
      "Ġclon": 5566,
      "rent": 5567,
      "Ġten": 5568,
      "ache": 5569,
      "Ġreturn": 5570,
      "Ġdetails": 5571,
      "Ġregen": 5572,
      "Ġgoal": 5573,
      "Ġpossibly": 5574,
      "Ġreporting": 5575,
      "Ġscenari": 5576,
      "ethods": 5577,
      "Ġcereb": 5578,
      "Ġveh": 5579,
      "ĠThen": 5580,
      "ĠTechn": 5581,
      "Ġcathe": 5582,
      "Ġeyes": 5583,
      "ometer": 5584,
      "AF": 5585,
      "06": 5586,
      "acing": 5587,
      "Ġsummary": 5588,
      "Both": 5589,
      "Ġexplan": 5590,
      "ĠPr": 5591,
      "ĠQu": 5592,
      "rie": 5593,
      "aspase": 5594,
      "Ġelderly": 5595,
      "Ġundergoing": 5596,
      "Ġrs": 5597,
      "Ġtrack": 5598,
      "Ġneurop": 5599,
      "Ġhospitals": 5600,
      "Ġdark": 5601,
      "Ġgive": 5602,
      "Ġgradient": 5603,
      "Ġharv": 5604,
      "olysis": 5605,
      "ĠHP": 5606,
      "Ġfluor": 5607,
      "unctional": 5608,
      "Ġphysicians": 5609,
      "Ġorganization": 5610,
      "elihood": 5611,
      "ident": 5612,
      "Ġdominant": 5613,
      "Ġfacilitate": 5614,
      "Ġneigh": 5615,
      "Moreover": 5616,
      "risk": 5617,
      "weight": 5618,
      "cents": 5619,
      "ĠCells": 5620,
      "Ġurinary": 5621,
      "ifer": 5622,
      "ocar": 5623,
      "Ġcomprehensive": 5624,
      "Ġ%": 5625,
      "imer": 5626,
      "Ġelucid": 5627,
      "Ġassembly": 5628,
      "value": 5629,
      "Ġmob": 5630,
      "arged": 5631,
      "acchar": 5632,
      "rand": 5633,
      "âĢīÂ°": 5634,
      "Ġreceive": 5635,
      "Ġana": 5636,
      "Ġgenotypes": 5637,
      "okine": 5638,
      "zation": 5639,
      "igible": 5640,
      "antly": 5641,
      "ĠLC": 5642,
      "ĠOS": 5643,
      "Ġinduces": 5644,
      "cat": 5645,
      "tra": 5646,
      "Ġpossess": 5647,
      "Ġeffectively": 5648,
      "Ġhydroph": 5649,
      "Ġmorphological": 5650,
      "nt": 5651,
      "Ġasked": 5652,
      "Ġvessels": 5653,
      "Ġloci": 5654,
      "SO": 5655,
      "Ġben": 5656,
      "lycer": 5657,
      "ermal": 5658,
      "Rs": 5659,
      "Ġ39": 5660,
      "Ġcircum": 5661,
      "MG": 5662,
      "Ġdiffusion": 5663,
      "Ġtraits": 5664,
      "Ġmarrow": 5665,
      "ociation": 5666,
      "Ġelement": 5667,
      "ĠGC": 5668,
      "ders": 5669,
      "Ġplastic": 5670,
      "Ġantioxidant": 5671,
      "Ġeasily": 5672,
      "Ap": 5673,
      "ĠStates": 5674,
      "Ġpurch": 5675,
      "Ġbegin": 5676,
      "ĠNew": 5677,
      "Ġinitially": 5678,
      "Ġavailability": 5679,
      "eter": 5680,
      "Ġ300": 5681,
      "Ġspectromet": 5682,
      "Ġvolun": 5683,
      "Ġconstrain": 5684,
      "Ġscan": 5685,
      "Ġfailed": 5686,
      "ollowing": 5687,
      "beta": 5688,
      "henyl": 5689,
      "sub": 5690,
      "âĢīÃĹ": 5691,
      "tention": 5692,
      "Ġcomposed": 5693,
      "Ġroutine": 5694,
      "Ġexplored": 5695,
      "itudinal": 5696,
      "Ġegg": 5697,
      "Ġdelay": 5698,
      "ened": 5699,
      "ana": 5700,
      "Ġconjug": 5701,
      "Ġmalaria": 5702,
      "Ġpathogen": 5703,
      "Ġcoding": 5704,
      "ĠPatients": 5705,
      "MO": 5706,
      "Ġtasks": 5707,
      "acer": 5708,
      "Ġvelocity": 5709,
      "otes": 5710,
      "Ġantibiotics": 5711,
      "Ġbleeding": 5712,
      "versely": 5713,
      "rown": 5714,
      "eryth": 5715,
      "Ġextension": 5716,
      "Ġhum": 5717,
      "Ġnine": 5718,
      "ĠCB": 5719,
      "adj": 5720,
      "org": 5721,
      "Ġconform": 5722,
      "inking": 5723,
      "ĠAss": 5724,
      "Ġmature": 5725,
      "ĠCL": 5726,
      "ada": 5727,
      "Ġcham": 5728,
      "ĠSpec": 5729,
      "Ġusers": 5730,
      "Ġparticipant": 5731,
      "containing": 5732,
      "gue": 5733,
      "ĠTLR": 5734,
      "ĠAmerican": 5735,
      "PU": 5736,
      "Ġkg": 5737,
      "Ġserious": 5738,
      "Ġrespective": 5739,
      "ĠTR": 5740,
      "uous": 5741,
      "Ġisoform": 5742,
      "tub": 5743,
      "vas": 5744,
      "Ġdocumented": 5745,
      "Ġonline": 5746,
      "ĠsiRNA": 5747,
      "Ġfracture": 5748,
      "Ġworkers": 5749,
      "Ġamplification": 5750,
      "Ġbiomarkers": 5751,
      "ontal": 5752,
      "Ġcommercial": 5753,
      "Ġty": 5754,
      "Ġpractices": 5755,
      "Ġchromatography": 5756,
      "Ġstarting": 5757,
      "nc": 5758,
      "ĠIs": 5759,
      "Ġdecline": 5760,
      "Ġintravenous": 5761,
      "Ġloading": 5762,
      "umab": 5763,
      "Ġbiochemical": 5764,
      "ecting": 5765,
      "Ġsuppression": 5766,
      "Among": 5767,
      "Ġprimer": 5768,
      "Ġconversion": 5769,
      "Ġacquisition": 5770,
      "ĠID": 5771,
      "azole": 5772,
      "ares": 5773,
      "Ġdefic": 5774,
      "Ġsubstrates": 5775,
      "ĠMg": 5776,
      "ĠMI": 5777,
      "Ġnote": 5778,
      "Ġnumerous": 5779,
      "Ġefforts": 5780,
      "raft": 5781,
      "Ġrise": 5782,
      "Ġclim": 5783,
      "Ġregist": 5784,
      "iotic": 5785,
      "Ġchallenges": 5786,
      "ued": 5787,
      "Ġface": 5788,
      "Ġprem": 5789,
      "Ġleaves": 5790,
      "actin": 5791,
      "Ġmicrobial": 5792,
      "Ġoccurring": 5793,
      "Ġpsychological": 5794,
      "water": 5795,
      "Ġnative": 5796,
      "uments": 5797,
      "EF": 5798,
      "Âł5": 5799,
      "Ġlayers": 5800,
      "odon": 5801,
      "Ġimplemented": 5802,
      "Ġartif": 5803,
      "wenty": 5804,
      "itary": 5805,
      "Ġproximal": 5806,
      "ĠSouth": 5807,
      "ĠBr": 5808,
      "Ġlabeled": 5809,
      "Ġbuil": 5810,
      "ellow": 5811,
      "ercul": 5812,
      "Vs": 5813,
      "Ġinstead": 5814,
      "ostasis": 5815,
      "Ġinterface": 5816,
      "otin": 5817,
      "ives": 5818,
      "fort": 5819,
      "Ġhard": 5820,
      "resistant": 5821,
      "Ġcommunities": 5822,
      "urine": 5823,
      "insic": 5824,
      "Ġstorage": 5825,
      "Ġintegrated": 5826,
      "Ġovernight": 5827,
      "idal": 5828,
      "osystem": 5829,
      "anth": 5830,
      "Ġparts": 5831,
      "Ġmillion": 5832,
      "Ġconsecutive": 5833,
      "Ġultrasound": 5834,
      "Ġfluorescent": 5835,
      "Ġconstruct": 5836,
      "osynthesis": 5837,
      "Ġlob": 5838,
      "Ġequivalent": 5839,
      "Ġpotent": 5840,
      "Ġsubunit": 5841,
      "Ms": 5842,
      "atif": 5843,
      "ĠMP": 5844,
      "ĠRep": 5845,
      "Ġtrauma": 5846,
      "Ġprefer": 5847,
      "During": 5848,
      "ester": 5849,
      "ĠMAP": 5850,
      "Ġmentioned": 5851,
      "ĠZn": 5852,
      "Ġmonitored": 5853,
      "Ġrecruitment": 5854,
      "ĠDuring": 5855,
      "ĠLV": 5856,
      "Ġfiber": 5857,
      "Ġrecruited": 5858,
      "ĠIndeed": 5859,
      "onin": 5860,
      "izations": 5861,
      "Ġfibers": 5862,
      "AK": 5863,
      "Ġbox": 5864,
      "Ns": 5865,
      "vation": 5866,
      "Ġdest": 5867,
      "Ġfavor": 5868,
      "zard": 5869,
      "Ġsensory": 5870,
      "amination": 5871,
      "Ġbarrier": 5872,
      "Ġ44": 5873,
      "Ġidentity": 5874,
      "Ag": 5875,
      "Ġcounts": 5876,
      "Ġcorrection": 5877,
      "Ġshorter": 5878,
      "Ġadjacent": 5879,
      "FT": 5880,
      "Ġcover": 5881,
      "Ġcav": 5882,
      "Ġdend": 5883,
      "AMP": 5884,
      "ĠDep": 5885,
      "Ġintact": 5886,
      "Ġconflic": 5887,
      "cler": 5888,
      "Ġseparation": 5889,
      "Ġcaps": 5890,
      "Ġenrolled": 5891,
      "BR": 5892,
      "Ġtransformation": 5893,
      "ĠCK": 5894,
      "Ġkind": 5895,
      "Ġyou": 5896,
      "Ġadolescents": 5897,
      "ĠSur": 5898,
      "Ġabsolute": 5899,
      "Ġnecrosis": 5900,
      "ĠMMP": 5901,
      "Ġsplic": 5902,
      "Ġprotocols": 5903,
      "Ġarticles": 5904,
      "ĠUsing": 5905,
      "Ġexcell": 5906,
      "vate": 5907,
      "ĠCu": 5908,
      "Ġequation": 5909,
      "Ġalleles": 5910,
      "Ġcrystal": 5911,
      "Ġuncertain": 5912,
      "Ġsmooth": 5913,
      "Ġarrow": 5914,
      "Ġdepends": 5915,
      "TE": 5916,
      "orec": 5917,
      "Ġcharge": 5918,
      "ĠPS": 5919,
      "enes": 5920,
      "ĠSL": 5921,
      "Ġneck": 5922,
      "07": 5923,
      "Ġoxide": 5924,
      "Ġground": 5925,
      "Therefore": 5926,
      "ĠNP": 5927,
      "Ġkne": 5928,
      "Ġclasses": 5929,
      "Ġenrich": 5930,
      "Ġcis": 5931,
      "Ġren": 5932,
      "Ġsynthetic": 5933,
      "Ġemotional": 5934,
      "Ġclar": 5935,
      "Ġqualit": 5936,
      "itor": 5937,
      "Ġbronch": 5938,
      "Ġprolonged": 5939,
      "phase": 5940,
      "Ġverte": 5941,
      "Ġepidemi": 5942,
      "Ġcreated": 5943,
      "ister": 5944,
      "Ġthin": 5945,
      "Ġrespondents": 5946,
      "Ġmach": 5947,
      "Ġattr": 5948,
      "Ġwalk": 5949,
      "Ġ41": 5950,
      "Ġorgans": 5951,
      "Ġtemperatures": 5952,
      "Ġdeaths": 5953,
      "Ġlanguage": 5954,
      "Ġâī¤": 5955,
      "luorescence": 5956,
      "ĠSome": 5957,
      "illing": 5958,
      "âĢīmg": 5959,
      "faces": 5960,
      "Ġsubt": 5961,
      "Ġcountry": 5962,
      "Ġaffecting": 5963,
      "Bs": 5964,
      "ovine": 5965,
      "Ġcomputer": 5966,
      "Ġarray": 5967,
      "Ġretinal": 5968,
      "Ġphenotypes": 5969,
      "Ġlogistic": 5970,
      "ĠBP": 5971,
      "Ġpathology": 5972,
      "ectin": 5973,
      "Ġimproving": 5974,
      "Ġreleased": 5975,
      "ĠEuropean": 5976,
      "Ġnerv": 5977,
      "500": 5978,
      "sin": 5979,
      "Ġech": 5980,
      "uries": 5981,
      "ĠPol": 5982,
      "Ġstandardi": 5983,
      "ĠPE": 5984,
      "Ġtomography": 5985,
      "Ġreag": 5986,
      "Ġnegatively": 5987,
      "acr": 5988,
      "Ġcompart": 5989,
      "sectional": 5990,
      "Ġdelayed": 5991,
      "ĠÎ³": 5992,
      "Ġcompeti": 5993,
      "Ġmitochondria": 5994,
      "Ġrot": 5995,
      "Ġvalidation": 5996,
      "ensitive": 5997,
      "utional": 5998,
      "Ġorganisms": 5999,
      "erences": 6000,
      "Ġinvolves": 6001,
      "Ġple": 6002,
      "Ġwar": 6003,
      "ĠHCC": 6004,
      "Ġ2018": 6005,
      "Ġubiqu": 6006,
      "eptide": 6007,
      "Ġhor": 6008,
      "ĠSecond": 6009,
      "Ġ43": 6010,
      "Ġuntreated": 6011,
      "Ġutilized": 6012,
      "Ġcategory": 6013,
      "Med": 6014,
      "riefly": 6015,
      "Ġelic": 6016,
      "ulti": 6017,
      "08": 6018,
      "Ġproject": 6019,
      "ibration": 6020,
      "Ġinteresting": 6021,
      "enic": 6022,
      "Ġtranslation": 6023,
      "ĠBased": 6024,
      "ifying": 6025,
      "aline": 6026,
      "Ġsupplemented": 6027,
      "Ġpolicy": 6028,
      "Ġdifferentially": 6029,
      "abilities": 6030,
      "gal": 6031,
      "Ġ46": 6032,
      "Ġsafe": 6033,
      "Ġshared": 6034,
      "atistical": 6035,
      "oline": 6036,
      "Ġextra": 6037,
      "Ġdogs": 6038,
      "Ġscaff": 6039,
      "Ġmanifest": 6040,
      "ycl": 6041,
      "Ġodds": 6042,
      "Ġbiof": 6043,
      "Ġparticle": 6044,
      "Ġ;": 6045,
      "Ġpeaks": 6046,
      "âĢĬ0": 6047,
      "Ġtryp": 6048,
      "ĠÃ": 6049,
      "ensities": 6050,
      "version": 6051,
      "Ġsegments": 6052,
      "Ġexcellent": 6053,
      "Ġidentifying": 6054,
      "Ġnuclei": 6055,
      "Ġlum": 6056,
      "ochemistry": 6057,
      "Ġsimultaneously": 6058,
      "Ġparticipate": 6059,
      "Ġmissing": 6060,
      "Ġglass": 6061,
      "Ġhousehold": 6062,
      "Ġputative": 6063,
      "ming": 6064,
      "ĠCM": 6065,
      "DI": 6066,
      "Ġlocations": 6067,
      "Ġnod": 6068,
      "ĠSer": 6069,
      "Ġhapl": 6070,
      "olin": 6071,
      "ĠAS": 6072,
      "Ġfractions": 6073,
      "jections": 6074,
      "CE": 6075,
      "ĠSR": 6076,
      "Ġimmunohist": 6077,
      "Ġreactive": 6078,
      "Ġaccoun": 6079,
      "Ġpneumonia": 6080,
      "evertheless": 6081,
      "itory": 6082,
      "ĠIntern": 6083,
      "Ġelectronic": 6084,
      "Ġunderstood": 6085,
      "];": 6086,
      "Ġinfluenza": 6087,
      "Ġreliability": 6088,
      "Ġtransgenic": 6089,
      "ĠWh": 6090,
      "Ġobstruc": 6091,
      "Ġimplications": 6092,
      "Ġlocus": 6093,
      "09": 6094,
      "Ġprogen": 6095,
      "na": 6096,
      "enetic": 6097,
      "Ġrecurrent": 6098,
      "Ġlive": 6099,
      "Ġmatched": 6100,
      "Ġalignment": 6101,
      "Ġvoltage": 6102,
      "mg": 6103,
      "ĠHere": 6104,
      "Ġconsidering": 6105,
      "Ġurban": 6106,
      "Ġrepeat": 6107,
      "Wh": 6108,
      "Ġregional": 6109,
      "Ġdiscussion": 6110,
      "Ġhabit": 6111,
      "ipl": 6112,
      "ĠInstitute": 6113,
      "Ġfold": 6114,
      "Ġcultiv": 6115,
      "Ġintegration": 6116,
      "Ġconsists": 6117,
      "Ġsuff": 6118,
      "Ġsalt": 6119,
      "Ġmultivariate": 6120,
      "Ġeconomic": 6121,
      "ĠCan": 6122,
      "orectal": 6123,
      "entry": 6124,
      "Ġaccordance": 6125,
      "ley": 6126,
      "omat": 6127,
      "ĠMO": 6128,
      "oblast": 6129,
      "Ġpathogens": 6130,
      "Ġitself": 6131,
      "Ġcrystall": 6132,
      "Ġventi": 6133,
      "Ġconsequences": 6134,
      "Ġduplic": 6135,
      "Ġring": 6136,
      "Ġserve": 6137,
      "Ġterminal": 6138,
      "Ġadherence": 6139,
      "Ġexchange": 6140,
      "Ġdistributions": 6141,
      "Ġinterpretation": 6142,
      "Ġnewly": 6143,
      "Ġfields": 6144,
      "Finally": 6145,
      "ĠSA": 6146,
      "Ġlikelihood": 6147,
      "Ġsurfaces": 6148,
      "Ġadequate": 6149,
      "Ġenriched": 6150,
      "ĠMod": 6151,
      "iver": 6152,
      "Ġvul": 6153,
      "ĠEth": 6154,
      "Ġpolymerase": 6155,
      "Ġlocalized": 6156,
      "itoneal": 6157,
      "Ġspe": 6158,
      "Ġmodifications": 6159,
      "Ġphases": 6160,
      "Ġrisks": 6161,
      "Ġgraft": 6162,
      "ococcus": 6163,
      "gluc": 6164,
      "ĠCX": 6165,
      "Ġtransient": 6166,
      "aid": 6167,
      "ĠJan": 6168,
      "Ġlargest": 6169,
      "ĠNH": 6170,
      "Ġvolum": 6171,
      "Ġcapable": 6172,
      "Ġactual": 6173,
      "Ġoutside": 6174,
      "Ġlymphocytes": 6175,
      "FC": 6176,
      "ozygous": 6177,
      "ĠSS": 6178,
      "cor": 6179,
      "athe": 6180,
      "ancing": 6181,
      "Ġinstance": 6182,
      "ĠMost": 6183,
      "pi": 6184,
      "Ġpla": 6185,
      "-,": 6186,
      "uth": 6187,
      "ĠMin": 6188,
      "oclonal": 6189,
      "ont": 6190,
      "Ġgenomes": 6191,
      "By": 6192,
      "Ġbey": 6193,
      "part": 6194,
      "data": 6195,
      "Ġmakes": 6196,
      "Ġrecommendations": 6197,
      "Ġbeyond": 6198,
      "Comp": 6199,
      "inger": 6200,
      "state": 6201,
      "Ġzone": 6202,
      "ducing": 6203,
      "ĠDR": 6204,
      "Ġisolation": 6205,
      "While": 6206,
      "ulus": 6207,
      "TC": 6208,
      "itus": 6209,
      "Ġconsensus": 6210,
      "Ġhighlight": 6211,
      "oglobin": 6212,
      "aldehyde": 6213,
      "Ġms": 6214,
      "Ġathe": 6215,
      "ping": 6216,
      "ano": 6217,
      "Ġobvious": 6218,
      "Ġconsisting": 6219,
      "Ġyounger": 6220,
      "Ġfalse": 6221,
      "Ġaortic": 6222,
      "Ġvarying": 6223,
      "Ġvehicle": 6224,
      "Ġlongitudinal": 6225,
      "Ġrelax": 6226,
      "ĠSup": 6227,
      "Ġretrie": 6228,
      "ota": 6229,
      "Ġdatasets": 6230,
      "ĠPV": 6231,
      "zer": 6232,
      "Ġeryth": 6233,
      "Ġvas": 6234,
      "Ġnervous": 6235,
      "Ġmapping": 6236,
      "ĠSm": 6237,
      "protein": 6238,
      "Ġparticipation": 6239,
      "urally": 6240,
      "He": 6241,
      "Ġrevers": 6242,
      "fficients": 6243,
      "Ġabsorb": 6244,
      "Ġassumed": 6245,
      "Ġantimicrobial": 6246,
      "icles": 6247,
      "aching": 6248,
      "Ġdefine": 6249,
      "Ġallowing": 6250,
      "ĠNe": 6251,
      "Ġsn": 6252,
      "Ġvaccination": 6253,
      "ĠNaCl": 6254,
      "oscopy": 6255,
      "Ġgovern": 6256,
      "Ġastro": 6257,
      "Ġrestricted": 6258,
      "Ġnearly": 6259,
      "ĠCal": 6260,
      "Ġmuscles": 6261,
      "Ġ1000": 6262,
      "Ġprogress": 6263,
      "Ġhydroly": 6264,
      "men": 6265,
      "Ġpulse": 6266,
      "Ġplatelet": 6267,
      "www": 6268,
      "Ġautophagy": 6269,
      "Ġov": 6270,
      "ĠÂµg": 6271,
      "Ds": 6272,
      "ĠCar": 6273,
      "Ġconclude": 6274,
      "ĠELISA": 6275,
      "Ġreduces": 6276,
      "ĠPP": 6277,
      "Ġimplicated": 6278,
      "intestinal": 6279,
      "cessive": 6280,
      "Ġscaffold": 6281,
      "ĠAA": 6282,
      "Ġmanip": 6283,
      "ĠTrans": 6284,
      "ĠRP": 6285,
      "Ġphenomenon": 6286,
      "ĠRh": 6287,
      "Ġ1999": 6288,
      "Ġvalidity": 6289,
      "MRI": 6290,
      "Ġoppos": 6291,
      "Ġinjuries": 6292,
      "Ġmicros": 6293,
      "Ġreconstruction": 6294,
      "Ġdischarge": 6295,
      "Ġdental": 6296,
      "ĠSNP": 6297,
      "rose": 6298,
      "ĠSEM": 6299,
      "Ġappearance": 6300,
      "Ġnurses": 6301,
      "Ġrural": 6302,
      "erculosis": 6303,
      "Ġmim": 6304,
      "Ġstop": 6305,
      "ĠâĪ¼": 6306,
      "Ġgap": 6307,
      "Ġhen": 6308,
      "Ġengine": 6309,
      "ĠNMR": 6310,
      "Ġmammalian": 6311,
      "Ġ56": 6312,
      "Ġcolle": 6313,
      "Ġaging": 6314,
      "linked": 6315,
      "istance": 6316,
      "ĠSE": 6317,
      "Ġchromatin": 6318,
      "Ġcoupled": 6319,
      "ĠCr": 6320,
      "Ġnic": 6321,
      "Ġconcluded": 6322,
      "Ġ120": 6323,
      "Ġcontrolling": 6324,
      "Ġforward": 6325,
      "Ġsoluble": 6326,
      "ĠAlso": 6327,
      "Ġmothers": 6328,
      "xin": 6329,
      "Ġnone": 6330,
      "Ġskeletal": 6331,
      "Ġscientific": 6332,
      "Ġscanning": 6333,
      "Ġpurchased": 6334,
      "Ġpredictors": 6335,
      "ologists": 6336,
      "ĠVEGF": 6337,
      "Ġ52": 6338,
      "Ġtoo": 6339,
      "ĠAdditional": 6340,
      "Ġcoefficients": 6341,
      "Ġimmunos": 6342,
      "Ġzero": 6343,
      "ĠCommittee": 6344,
      "vo": 6345,
      "Ġfores": 6346,
      "illance": 6347,
      "osine": 6348,
      "chang": 6349,
      "Ġbilateral": 6350,
      "ulum": 6351,
      "Ġgut": 6352,
      "Ġenhancement": 6353,
      "'-": 6354,
      "En": 6355,
      "Ġinfusion": 6356,
      "IM": 6357,
      "Ġdescri": 6358,
      "Ġparent": 6359,
      "andard": 6360,
      "Ġpresents": 6361,
      "ilep": 6362,
      "Ġdisturb": 6363,
      "Ġregulating": 6364,
      "ĠnM": 6365,
      "Ġvag": 6366,
      "gens": 6367,
      "kt": 6368,
      "Ġshock": 6369,
      "Ġprogressive": 6370,
      "Ġexperiences": 6371,
      "Ġabundant": 6372,
      "amples": 6373,
      "Despite": 6374,
      "dose": 6375,
      "Ġcomorb": 6376,
      "Ġemergency": 6377,
      "Ġpropose": 6378,
      "Ġsimulated": 6379,
      "Ġveget": 6380,
      "Ġsocio": 6381,
      "Ar": 6382,
      "Ġbp": 6383,
      "chron": 6384,
      "ying": 6385,
      "Ġpure": 6386,
      "anine": 6387,
      "Ġmodeling": 6388,
      "Ġmaximal": 6389,
      "apped": 6390,
      "NH": 6391,
      "Ġmodulation": 6392,
      "Ġassessing": 6393,
      "OSE": 6394,
      "PSS": 6395,
      "Ġmetastases": 6396,
      "mal": 6397,
      "ĠSuch": 6398,
      "Ġquantification": 6399,
      "Ġdual": 6400,
      "ĠES": 6401,
      "oscopic": 6402,
      "ĠAustr": 6403,
      "ĠSo": 6404,
      "Ġcirculating": 6405,
      "Ġskills": 6406,
      "Ġvein": 6407,
      "vity": 6408,
      "Ġbovine": 6409,
      "Ġcovari": 6410,
      "Ġinsu": 6411,
      "Ġprocessed": 6412,
      "Ġansw": 6413,
      "usions": 6414,
      "ovirus": 6415,
      "otides": 6416,
      "Ġcoupling": 6417,
      "Based": 6418,
      "UT": 6419,
      "Ġtun": 6420,
      "Ġones": 6421,
      "Ġbeam": 6422,
      "Ġrepresenting": 6423,
      "Ġinstructions": 6424,
      "Ġethn": 6425,
      "Ġtext": 6426,
      "Ġoffer": 6427,
      "Ġnever": 6428,
      "]).": 6429,
      "icient": 6430,
      "Ġfixation": 6431,
      "atum": 6432,
      "Ġsynaptic": 6433,
      "Ġdistinguish": 6434,
      "Ġperception": 6435,
      "Ġgli": 6436,
      "Ġmeaning": 6437,
      "ĠCor": 6438,
      "Ġexpand": 6439,
      "ĠÎ´": 6440,
      "Ġdecreasing": 6441,
      "Ġ250": 6442,
      "Ġresidue": 6443,
      "Ġconsiderable": 6444,
      "UN": 6445,
      "ÂłS": 6446,
      "Ġcharacterization": 6447,
      "Ġsupporting": 6448,
      "Ġneurological": 6449,
      "fam": 6450,
      "ito": 6451,
      "Ġcold": 6452,
      "Ġinstrument": 6453,
      "Ġpersons": 6454,
      "Ġauthor": 6455,
      "Ġsituation": 6456,
      "Ġdefect": 6457,
      "Ġwestern": 6458,
      "Ġstarted": 6459,
      "Ġaccompan": 6460,
      "ĠCC": 6461,
      "ipitation": 6462,
      "Ġcatalytic": 6463,
      "scill": 6464,
      "Ġround": 6465,
      "Ġcaspase": 6466,
      "ĠMETHODS": 6467,
      "Ġtheoretical": 6468,
      "ĠSDS": 6469,
      "key": 6470,
      "Ġphylogenetic": 6471,
      "Ġelectrode": 6472,
      "ĠMore": 6473,
      "Ġdefinition": 6474,
      "lands": 6475,
      "rosine": 6476,
      "Ġimmunity": 6477,
      "Ġevident": 6478,
      "Ġenrichment": 6479,
      "--": 6480,
      "ĠAB": 6481,
      "iO": 6482,
      "inine": 6483,
      "Di": 6484,
      "Sigma": 6485,
      "ĠNC": 6486,
      "Ġcleavage": 6487,
      "Ġconduct": 6488,
      "Ġischemic": 6489,
      "ocarcin": 6490,
      "ontin": 6491,
      "actic": 6492,
      "Ġsurrounding": 6493,
      "Ġuter": 6494,
      "sts": 6495,
      "come": 6496,
      "ellar": 6497,
      "IA": 6498,
      "Ġcomposite": 6499,
      "Ġligands": 6500,
      "queous": 6501,
      "Ġcontributed": 6502,
      "ysts": 6503,
      "Ġ47": 6504,
      "Ġamplified": 6505,
      "Ġlap": 6506,
      "Ġdiluted": 6507,
      "oration": 6508,
      "Ġplots": 6509,
      "Ġmonoclonal": 6510,
      "Ġpediatric": 6511,
      "Ġdorsal": 6512,
      "alling": 6513,
      "Ġbecame": 6514,
      "Ġlost": 6515,
      "entia": 6516,
      "Ġbladder": 6517,
      "Ġcycl": 6518,
      "Ġknockdown": 6519,
      "Ġestimation": 6520,
      "Ġcontinued": 6521,
      "Ġknee": 6522,
      "elled": 6523,
      "PAR": 6524,
      "Ġstratif": 6525,
      "Ġfilm": 6526,
      "Ġconfig": 6527,
      "Ġwritten": 6528,
      "Ġentry": 6529,
      "ĠHPV": 6530,
      ")/": 6531,
      "assive": 6532,
      "Ġhealing": 6533,
      "ĠBD": 6534,
      "Ġinvestigations": 6535,
      "Ġtranspor": 6536,
      "ferase": 6537,
      "Ġseparately": 6538,
      "Ġclustering": 6539,
      "Ġorientation": 6540,
      "vitrogen": 6541,
      "ÂłÂ±": 6542,
      "Ġsuspension": 6543,
      "Ġtel": 6544,
      "Ġcompens": 6545,
      "Ġblocked": 6546,
      "flow": 6547,
      "Ġdependence": 6548,
      "Ġrabbit": 6549,
      "Ġinhibits": 6550,
      "Ġlacking": 6551,
      "ranial": 6552,
      "Ġretention": 6553,
      "Ġsuppressed": 6554,
      "plete": 6555,
      "Ġuniform": 6556,
      "Ġdesi": 6557,
      "Ġexcess": 6558,
      "Since": 6559,
      "angi": 6560,
      "Ġupregulated": 6561,
      "Gen": 6562,
      "uff": 6563,
      "undred": 6564,
      "Ġreplacement": 6565,
      "Ġhypothesized": 6566,
      "icted": 6567,
      "Additional": 6568,
      "ocrine": 6569,
      "ĠFA": 6570,
      "Ġapplic": 6571,
      "Ġspectroscopy": 6572,
      "Ġcausing": 6573,
      "Ġmarkedly": 6574,
      "Ġprobes": 6575,
      "osal": 6576,
      "Ġenvironments": 6577,
      "uz": 6578,
      "array": 6579,
      "Pl": 6580,
      "Ġdemographic": 6581,
      "Ġdeposition": 6582,
      "Ġreproductive": 6583,
      "ilities": 6584,
      "Ġfibroblasts": 6585,
      "Ġspin": 6586,
      "cy": 6587,
      "Ġhair": 6588,
      "uvant": 6589,
      "Ġstatistics": 6590,
      "clinical": 6591,
      "Ġfewer": 6592,
      "rew": 6593,
      "ĠResults": 6594,
      "Ġadaptation": 6595,
      "ĠMedic": 6596,
      "Ġmedications": 6597,
      "Ġhazard": 6598,
      "Ġpoorly": 6599,
      "ilib": 6600,
      "ients": 6601,
      "teen": 6602,
      "Ġinner": 6603,
      "ĠArab": 6604,
      "ĠAfrica": 6605,
      "Ġattemp": 6606,
      "HF": 6607,
      "ga": 6608,
      "roscler": 6609,
      "anned": 6610,
      "ĠHCV": 6611,
      "avy": 6612,
      "âĪĴ/âĪĴ": 6613,
      "vol": 6614,
      "Ġoscill": 6615,
      "Ġlisted": 6616,
      "Ġneph": 6617,
      "Ġinside": 6618,
      "Ġschiz": 6619,
      "Ġdiges": 6620,
      "oman": 6621,
      "Ġseiz": 6622,
      "RPOSE": 6623,
      "Ġdepletion": 6624,
      "atase": 6625,
      "Ġgold": 6626,
      "ramatic": 6627,
      "Ġaccompanied": 6628,
      "Ġcytometry": 6629,
      "Ġdatabases": 6630,
      "tition": 6631,
      "Ġendomet": 6632,
      "Ġvisit": 6633,
      "Hg": 6634,
      "Ġconfound": 6635,
      "Ġcer": 6636,
      "ĠOnly": 6637,
      "amate": 6638,
      "immune": 6639,
      "ico": 6640,
      "CAT": 6641,
      "Ġvisits": 6642,
      "Ġsurge": 6643,
      "Ġantigens": 6644,
      "Ġvenous": 6645,
      "ĠJanuary": 6646,
      "drich": 6647,
      "herent": 6648,
      "till": 6649,
      "Ġdetermining": 6650,
      "Ġvisible": 6651,
      "Ġinfectious": 6652,
      "natal": 6653,
      "ĠBio": 6654,
      "ĠExper": 6655,
      "Ġconsequence": 6656,
      "ulture": 6657,
      "Ġplanning": 6658,
      "Ġmmol": 6659,
      "oli": 6660,
      "osterone": 6661,
      "ĠFrom": 6662,
      "ĠEGFR": 6663,
      "Ġdemonstrates": 6664,
      "])": 6665,
      "ks": 6666,
      "times": 6667,
      "Ġcolorectal": 6668,
      "Ġget": 6669,
      "Ġischemia": 6670,
      "Ġuses": 6671,
      "Ġinterfer": 6672,
      "rig": 6673,
      "achment": 6674,
      "Ġinsertion": 6675,
      "gent": 6676,
      "Ġdramatic": 6677,
      "Le": 6678,
      "Ġabsent": 6679,
      "ĠBR": 6680,
      "âĢīmM": 6681,
      "Stud": 6682,
      "Ġobese": 6683,
      "Ġwhy": 6684,
      "berg": 6685,
      "Ġparental": 6686,
      "ulative": 6687,
      "ĠGu": 6688,
      "Ġke": 6689,
      "Ġmyc": 6690,
      "urance": 6691,
      "aine": 6692,
      "Ġdial": 6693,
      "poses": 6694,
      "Ġhomeostasis": 6695,
      "Ġbiofil": 6696,
      "Ġactions": 6697,
      "Ġsessions": 6698,
      "300": 6699,
      "ocytosis": 6700,
      "Ġbands": 6701,
      "Ġcapture": 6702,
      "Ġslic": 6703,
      "Ġfigure": 6704,
      "Ġvectors": 6705,
      "Ġhydrox": 6706,
      "Ġlet": 6707,
      "etric": 6708,
      "lip": 6709,
      "syn": 6710,
      "odynamic": 6711,
      "linear": 6712,
      "going": 6713,
      "iness": 6714,
      "ĠIP": 6715,
      "Ġattit": 6716,
      "Ġenough": 6717,
      "isting": 6718,
      "ensis": 6719,
      "ipit": 6720,
      "Ġ51": 6721,
      "Ġdiscovery": 6722,
      "Ġhemorrh": 6723,
      "Ġworldwide": 6724,
      "WT": 6725,
      "ĠGl": 6726,
      "NR": 6727,
      "ĠBL": 6728,
      "ophage": 6729,
      "prot": 6730,
      "Ġadaptive": 6731,
      "Ġhypoxia": 6732,
      "Ġgastrointestinal": 6733,
      "Ġtransfection": 6734,
      "vance": 6735,
      "Ġevolutionary": 6736,
      "Ġsustained": 6737,
      "Ġeti": 6738,
      "acco": 6739,
      "ĠCYP": 6740,
      "Ġ54": 6741,
      "ione": 6742,
      "ophren": 6743,
      "Ġchest": 6744,
      "Ġwidth": 6745,
      "Ġcytoplasmic": 6746,
      "ĠSH": 6747,
      "Ġperc": 6748,
      "Ġ64": 6749,
      "aryn": 6750,
      "Ġchamber": 6751,
      "Ġchick": 6752,
      "Ġirradiation": 6753,
      "carb": 6754,
      "stage": 6755,
      "Ġ400": 6756,
      "Ġmelanoma": 6757,
      "une": 6758,
      "rays": 6759,
      "zen": 6760,
      "pass": 6761,
      "orld": 6762,
      "appro": 6763,
      "gene": 6764,
      "Ġcomplexity": 6765,
      "Ġadvantages": 6766,
      "Ġaqueous": 6767,
      "Ġpreoperative": 6768,
      "target": 6769,
      "ĠAÎ²": 6770,
      "Ġextremely": 6771,
      "Ġanc": 6772,
      "omical": 6773,
      "Ġreh": 6774,
      "Ġfunctioning": 6775,
      "Ġalbumin": 6776,
      "athy": 6777,
      "Ġexclus": 6778,
      "Most": 6779,
      "Ġrod": 6780,
      "Ġperi": 6781,
      "Ġuns": 6782,
      "Ġlimb": 6783,
      "Ġcenters": 6784,
      "Ġdetectable": 6785,
      "Ġwords": 6786,
      "Ġpredominantly": 6787,
      "Ser": 6788,
      "bound": 6789,
      "ĠHence": 6790,
      "opo": 6791,
      "Ġdemonstrating": 6792,
      "ĠAnother": 6793,
      "Ġhepatitis": 6794,
      "LD": 6795,
      "ĠAK": 6796,
      "Ġindicators": 6797,
      "factory": 6798,
      "ĠSM": 6799,
      "Ġ53": 6800,
      "Ġpregnant": 6801,
      "oside": 6802,
      "ĠAMP": 6803,
      "Ġdistr": 6804,
      "Ġcombinations": 6805,
      "pen": 6806,
      "Ġqualitative": 6807,
      "Ġcharacterize": 6808,
      "ĠFisher": 6809,
      "Ġ85": 6810,
      "Ġbeginning": 6811,
      "Ġlarv": 6812,
      "Ġ1998": 6813,
      "Ġamyl": 6814,
      "Ġpersistent": 6815,
      "Ġconcerns": 6816,
      "Ġmotiv": 6817,
      "oor": 6818,
      "ĠEC": 6819,
      "aped": 6820,
      "Ġpresenting": 6821,
      "ecal": 6822,
      "+,": 6823,
      "Ġclones": 6824,
      "Ġreporter": 6825,
      "Ġcontributes": 6826,
      "Ġhundred": 6827,
      "Ġlimitation": 6828,
      "Ġâĸ": 6829,
      "Ġcatheter": 6830,
      "icin": 6831,
      "Ġhour": 6832,
      "Ġlimits": 6833,
      "Ġphysician": 6834,
      "Ġinfarction": 6835,
      "oin": 6836,
      "Ġfoot": 6837,
      "osity": 6838,
      "ĠSal": 6839,
      "Ġau": 6840,
      "Ġsent": 6841,
      "urity": 6842,
      "Ġrestriction": 6843,
      "Ġmurine": 6844,
      "ss": 6845,
      "ivered": 6846,
      "Ġsatisfaction": 6847,
      "born": 6848,
      "ono": 6849,
      "Ġ(>": 6850,
      "itrate": 6851,
      "reported": 6852,
      "ilibrium": 6853,
      "Ġintrinsic": 6854,
      "Ġderivatives": 6855,
      "Ġannual": 6856,
      "Ġinterpre": 6857,
      "ift": 6858,
      "EB": 6859,
      "Ġcaro": 6860,
      "Ġmember": 6861,
      "Further": 6862,
      "entially": 6863,
      "Ġkinetics": 6864,
      "opsis": 6865,
      "Ġouter": 6866,
      "Ġaspir": 6867,
      "CLC": 6868,
      "Ġconnected": 6869,
      "âĦ": 6870,
      "Ġcla": 6871,
      "deficient": 6872,
      "Ġvide": 6873,
      "enin": 6874,
      "Ġdifferentiated": 6875,
      "PURPOSE": 6876,
      "but": 6877,
      "uria": 6878,
      "Ġchildhood": 6879,
      "Ġrepresentation": 6880,
      "Ġcorne": 6881,
      "lux": 6882,
      "Ġbiosynthesis": 6883,
      "ĠMet": 6884,
      "Ġperoxid": 6885,
      "raction": 6886,
      "ĠHLA": 6887,
      "lect": 6888,
      "Ġ49": 6889,
      "Ġremod": 6890,
      "Ġapoptotic": 6891,
      "Ġconcer": 6892,
      "Ġtag": 6893,
      "ĠInter": 6894,
      "Ġens": 6895,
      "Ġgland": 6896,
      "ivers": 6897,
      "ĠEr": 6898,
      "Ġdied": 6899,
      "Ġnursing": 6900,
      "KO": 6901,
      "omycin": 6902,
      "ends": 6903,
      "Ġneonatal": 6904,
      "UV": 6905,
      "assi": 6906,
      "Ġsple": 6907,
      "ĠLab": 6908,
      "glut": 6909,
      "Ġheterogeneous": 6910,
      "Ġactivate": 6911,
      "tumor": 6912,
      "isions": 6913,
      "Ġvalu": 6914,
      "Ġsusceptible": 6915,
      "Sp": 6916,
      "Ġstay": 6917,
      "Ġevaluating": 6918,
      "Ġinterviews": 6919,
      "Ġsurveillance": 6920,
      "OT": 6921,
      "http": 6922,
      "iance": 6923,
      "Ġanth": 6924,
      "Ġuser": 6925,
      "Ġoptions": 6926,
      "Âłmonths": 6927,
      "Ġgamma": 6928,
      "ĠTP": 6929,
      "Ġcomplication": 6930,
      "Ġsupports": 6931,
      "Ġ99": 6932,
      "inn": 6933,
      "âĢīmm": 6934,
      "Ġemphas": 6935,
      "Ġflav": 6936,
      "aving": 6937,
      "tures": 6938,
      "Ġfibr": 6939,
      "Ġrequirements": 6940,
      "ĠSI": 6941,
      "ĠMo": 6942,
      "Ġrecovered": 6943,
      "Overall": 6944,
      "phosphate": 6945,
      "ĠGene": 6946,
      "sibility": 6947,
      "Ġintensive": 6948,
      "Ġstandardized": 6949,
      ")).": 6950,
      "ĠSF": 6951,
      "ĠHb": 6952,
      "tail": 6953,
      "Ġscales": 6954,
      "angl": 6955,
      "Ġpartners": 6956,
      "ĠAI": 6957,
      "Ġnamely": 6958,
      "ĠPar": 6959,
      "Ġwhom": 6960,
      "MAT": 6961,
      "mat": 6962,
      "Ġcontrac": 6963,
      "acting": 6964,
      "Ġcortic": 6965,
      "ĠHE": 6966,
      "Ġcalculate": 6967,
      "Ġpredictor": 6968,
      "comp": 6969,
      "Ġ)": 6970,
      "Ġpil": 6971,
      "esides": 6972,
      "Ġcavity": 6973,
      "From": 6974,
      "RR": 6975,
      "Ġdisability": 6976,
      "Ġhoriz": 6977,
      "Ġhence": 6978,
      "leuk": 6979,
      "Ġsolvent": 6980,
      "icular": 6981,
      "Ġproviders": 6982,
      "Ġdementia": 6983,
      "Ġcam": 6984,
      "Ġvirul": 6985,
      "ohydr": 6986,
      "pH": 6987,
      "plicit": 6988,
      "LT": 6989,
      "Ġpolymorphism": 6990,
      "Ġways": 6991,
      "icillin": 6992,
      "arin": 6993,
      "Ġimplant": 6994,
      "Ġenab": 6995,
      "IGN": 6996,
      "body": 6997,
      "Ġane": 6998,
      "abric": 6999,
      "Ġperforming": 7000,
      "002": 7001,
      "Ġtuberculosis": 7002,
      "ureus": 7003,
      "Ġepilep": 7004,
      "labeled": 7005,
      "Ġkept": 7006,
      "Ġpsychiatric": 7007,
      "ady": 7008,
      "Ġpoll": 7009,
      "Ġclearance": 7010,
      "dis": 7011,
      "Ġtrap": 7012,
      "Ġhistone": 7013,
      "break": 7014,
      "Sc": 7015,
      "ilateral": 7016,
      "Ġker": 7017,
      "Ġsubstantially": 7018,
      "Ġcreate": 7019,
      "Ġcopy": 7020,
      "dyl": 7021,
      "acial": 7022,
      "ĠKit": 7023,
      "Ġpaired": 7024,
      "Ġtrained": 7025,
      "omers": 7026,
      "Ġgon": 7027,
      "Ġgave": 7028,
      "illus": 7029,
      "Ġcartil": 7030,
      "usp": 7031,
      "Ġcorrespond": 7032,
      "Ġpooled": 7033,
      "ato": 7034,
      "edded": 7035,
      "Ġsubunits": 7036,
      "Figures": 7037,
      "prising": 7038,
      "ĠNevertheless": 7039,
      "Ġutilization": 7040,
      "Ġheavy": 7041,
      "Ġparad": 7042,
      "Ġfractures": 7043,
      "Ġbinds": 7044,
      "Ġschizophren": 7045,
      "Sub": 7046,
      "crip": 7047,
      "Ġatheroscler": 7048,
      "Ġice": 7049,
      "selec": 7050,
      "Cell": 7051,
      "Ġtechnical": 7052,
      "ĠFran": 7053,
      "Ġtob": 7054,
      "Ġfollic": 7055,
      "Ġtreating": 7056,
      "cription": 7057,
      "Ġdelivered": 7058,
      "Ġ58": 7059,
      "Ġpharmacological": 7060,
      "ĠCenter": 7061,
      "chlor": 7062,
      "Ġimprovements": 7063,
      "lusions": 7064,
      "Bi": 7065,
      "Ġquad": 7066,
      "Ġpromoting": 7067,
      "Ġsense": 7068,
      "ĠControl": 7069,
      "Ġpublication": 7070,
      "Ġairway": 7071,
      "ucifer": 7072,
      "ĠDespite": 7073,
      "yper": 7074,
      "Ġbed": 7075,
      "Ġdiffered": 7076,
      "Ġnarrow": 7077,
      "Ġpromotes": 7078,
      "ysiological": 7079,
      "itting": 7080,
      "Ġpenet": 7081,
      "Ġsearc": 7082,
      "Ġmaturation": 7083,
      "Ġprecursor": 7084,
      "draw": 7085,
      "Ġperf": 7086,
      "rected": 7087,
      "Ġbecomes": 7088,
      "Ġthym": 7089,
      "Ġmethodology": 7090,
      "ĠScientific": 7091,
      "Ġoverlap": 7092,
      "ply": 7093,
      "Ġstronger": 7094,
      "Several": 7095,
      "ĠPG": 7096,
      "Ġradiotherapy": 7097,
      "Ġmovements": 7098,
      "005": 7099,
      "Bl": 7100,
      "Ġcum": 7101,
      "ĠML": 7102,
      "operatively": 7103,
      "Ġtrends": 7104,
      "Ġbarriers": 7105,
      "ĠSeveral": 7106,
      "Ġjud": 7107,
      "Ġelong": 7108,
      "Ġharvested": 7109,
      "Ġ57": 7110,
      "Ġexistence": 7111,
      "Per": 7112,
      "ref": 7113,
      "cells": 7114,
      "Ġintroduction": 7115,
      "+/-": 7116,
      "TOR": 7117,
      "chymal": 7118,
      "olid": 7119,
      "Ġportion": 7120,
      "ĠKore": 7121,
      "atories": 7122,
      "Ġblocks": 7123,
      "ABA": 7124,
      "Ġdimensions": 7125,
      "TG": 7126,
      "rated": 7127,
      "Ġaddressed": 7128,
      "Ġregardless": 7129,
      "ĠStudy": 7130,
      "Ġsupernatant": 7131,
      "ĠIGF": 7132,
      "Ġpert": 7133,
      "ĠDC": 7134,
      "Ġbiology": 7135,
      "Ġpathogenic": 7136,
      "ĠProtein": 7137,
      "Anal": 7138,
      "vered": 7139,
      "ush": 7140,
      "Ġconsistently": 7141,
      "Ġvolumes": 7142,
      "Ġplane": 7143,
      "obil": 7144,
      "Ne": 7145,
      "aceu": 7146,
      "Ġrecombination": 7147,
      "BB": 7148,
      "Ġmedial": 7149,
      "steine": 7150,
      "Ġlibrary": 7151,
      "Ġinitiated": 7152,
      "owel": 7153,
      "Ġperfusion": 7154,
      "ĠLDL": 7155,
      "mented": 7156,
      "ÂłÂ°": 7157,
      "Ġbottom": 7158,
      "Ġremove": 7159,
      "Ġprecise": 7160,
      "Ġflux": 7161,
      "Ġadsorption": 7162,
      "ĠImmun": 7163,
      "Ġaggregation": 7164,
      "vasive": 7165,
      "squ": 7166,
      "ĠTF": 7167,
      "Three": 7168,
      "Ġexon": 7169,
      "Ġvertical": 7170,
      "ĠCN": 7171,
      "Ġgreatly": 7172,
      "pol": 7173,
      "Ġacces": 7174,
      "Ġelectrical": 7175,
      "otropic": 7176,
      "ĠSC": 7177,
      "Ġvessel": 7178,
      "mut": 7179,
      "ĠInformation": 7180,
      "Ġ1997": 7181,
      "Ġremark": 7182,
      "RIAL": 7183,
      "vents": 7184,
      "ĠMean": 7185,
      "MM": 7186,
      "ulates": 7187,
      "oresis": 7188,
      "hydroxy": 7189,
      "La": 7190,
      "fig": 7191,
      "Ġstre": 7192,
      "Ġrich": 7193,
      "oking": 7194,
      "Ġ62": 7195,
      "Ġobserve": 7196,
      "Ġattack": 7197,
      "life": 7198,
      "Ġalgorithms": 7199,
      "Ġresource": 7200,
      "Ġasymmet": 7201,
      "Ġunp": 7202,
      "Ġtook": 7203,
      "udes": 7204,
      "Ġphenotypic": 7205,
      "Ġedge": 7206,
      "amental": 7207,
      "Ġtraject": 7208,
      "Ġpractical": 7209,
      "urys": 7210,
      "Ġotherwise": 7211,
      "Ġbenign": 7212,
      "Ġpip": 7213,
      "ritic": 7214,
      "Ġbenz": 7215,
      "Ġaureus": 7216,
      "Ġchains": 7217,
      "Ġembryonic": 7218,
      "Ġvolunte": 7219,
      "ensitivity": 7220,
      "Ġempir": 7221,
      "Ġrelevance": 7222,
      "Ġregulates": 7223,
      "Ġvaluable": 7224,
      "(+)": 7225,
      "Ġpromin": 7226,
      "ophageal": 7227,
      "ract": 7228,
      "Ġprov": 7229,
      "Sh": 7230,
      "Ġsignalling": 7231,
      "Ġoption": 7232,
      "ĠPET": 7233,
      "Ġscler": 7234,
      "Ġrice": 7235,
      "ĠAfrican": 7236,
      "Ġcytotoxic": 7237,
      "Ġhip": 7238,
      "embrane": 7239,
      "inson": 7240,
      "ida": 7241,
      "Ġlipids": 7242,
      "Ġsaliv": 7243,
      "Ġfaster": 7244,
      "requenc": 7245,
      "lyce": 7246,
      "asty": 7247,
      "Ġchallenging": 7248,
      "stolic": 7249,
      "ĠSV": 7250,
      "Ġdonors": 7251,
      "Ġmicrogl": 7252,
      "pan": 7253,
      "Ġencour": 7254,
      "Ġ(<": 7255,
      "oidal": 7256,
      "vic": 7257,
      ".âĢĿ": 7258,
      "Ġoperating": 7259,
      "ĠBriefly": 7260,
      "arities": 7261,
      "Ġprofessional": 7262,
      "hermo": 7263,
      "âĢī10": 7264,
      "MSO": 7265,
      "Ġsupplementation": 7266,
      "enia": 7267,
      "empor": 7268,
      "ĠPrevious": 7269,
      "ĠFour": 7270,
      "ESIGN": 7271,
      "Ġcovered": 7272,
      "Ġobject": 7273,
      "Ġepithelium": 7274,
      "Fe": 7275,
      "ĠSTAT": 7276,
      "Ġdilution": 7277,
      "atigue": 7278,
      "ĠPF": 7279,
      "ĠBo": 7280,
      "formed": 7281,
      "Ġexamples": 7282,
      "Ġarchit": 7283,
      "Ġspectrometry": 7284,
      "omit": 7285,
      "Ġgir": 7286,
      "ĠGiven": 7287,
      "ancial": 7288,
      "tox": 7289,
      "Ġstandards": 7290,
      "Ġlabor": 7291,
      "razil": 7292,
      "Ġinfant": 7293,
      "Ġlymphoma": 7294,
      "Ġguide": 7295,
      "Ġfungal": 7296,
      "Ġetc": 7297,
      "phyl": 7298,
      "Ġyielded": 7299,
      "Ġadip": 7300,
      "ather": 7301,
      "economic": 7302,
      "Ġperspective": 7303,
      "Ġexcit": 7304,
      "weeks": 7305,
      "Ġopposite": 7306,
      "ocarcinoma": 7307,
      "Ġtiming": 7308,
      "Ġparticipated": 7309,
      "Ġcareful": 7310,
      "ĠÎ¼L": 7311,
      "elves": 7312,
      "Ġrating": 7313,
      "lik": 7314,
      "Ġhybridization": 7315,
      "Ġformal": 7316,
      "fe": 7317,
      "Ġdigital": 7318,
      "gence": 7319,
      "âĢľ": 7320,
      "Ġprofessionals": 7321,
      "Ġenable": 7322,
      "adily": 7323,
      "Ġspectral": 7324,
      "Ġadjustment": 7325,
      "Because": 7326,
      "Ġcode": 7327,
      "ĠCare": 7328,
      "orous": 7329,
      "Ġ63": 7330,
      "Ġindicator": 7331,
      "Ġeducational": 7332,
      "iliary": 7333,
      "Ġconnectivity": 7334,
      "Ġconcerning": 7335,
      "ogether": 7336,
      "Ġadding": 7337,
      "Ġadren": 7338,
      "Ġopi": 7339,
      "Ġinsight": 7340,
      "Ġradio": 7341,
      "Ġwindow": 7342,
      "Ġmos": 7343,
      "ĠGS": 7344,
      "Ġinvolve": 7345,
      "Ġenzymatic": 7346,
      "Ġcollabor": 7347,
      "ively": 7348,
      "uciferase": 7349,
      "ĠDA": 7350,
      "Ġdimin": 7351,
      "ĠCRC": 7352,
      "ĠCSF": 7353,
      "Ġstrom": 7354,
      "Ġfabric": 7355,
      "CAM": 7356,
      "âī¥": 7357,
      "Ġcomputational": 7358,
      "Ġdescription": 7359,
      "omb": 7360,
      "Ġepig": 7361,
      "Ġsubtypes": 7362,
      "hyd": 7363,
      "abs": 7364,
      "Ġproducing": 7365,
      "hydrogen": 7366,
      "UR": 7367,
      "heres": 7368,
      "Ġrig": 7369,
      "Ġimmediate": 7370,
      "Ġcrop": 7371,
      "Ġbreat": 7372,
      "âĢīnm": 7373,
      "Ġmonitor": 7374,
      "apl": 7375,
      "ulose": 7376,
      "Ġconsideration": 7377,
      "ĠPH": 7378,
      "Ġregimen": 7379,
      "Ġoutbreak": 7380,
      "omics": 7381,
      "Ġdrain": 7382,
      "ecture": 7383,
      "Ġsched": 7384,
      "Ġvacu": 7385,
      "Mean": 7386,
      "Ġtraff": 7387,
      "Aldrich": 7388,
      "Ġyellow": 7389,
      "Ġpolymorphisms": 7390,
      "acic": 7391,
      "Ġastroc": 7392,
      "Ġhippocampus": 7393,
      "Ġtobacco": 7394,
      "Ġfitness": 7395,
      "psis": 7396,
      "Ġwavel": 7397,
      "Ġreplicates": 7398,
      ")]": 7399,
      "Ġparasite": 7400,
      "Ġawareness": 7401,
      "ĠNAD": 7402,
      "Ġmineral": 7403,
      "Ġfever": 7404,
      "Ġquite": 7405,
      "Ġdirected": 7406,
      "ait": 7407,
      "Ġgenus": 7408,
      "Ġcalculations": 7409,
      "ample": 7410,
      "Ġseason": 7411,
      "Âłdays": 7412,
      "ĠGP": 7413,
      "Ġgraf": 7414,
      "ĠCOPD": 7415,
      "Ġultim": 7416,
      "urated": 7417,
      "Ġproved": 7418,
      "Ġmobility": 7419,
      "ĠVal": 7420,
      "Ġinsights": 7421,
      "ofluorescence": 7422,
      "igm": 7423,
      "Ġcontents": 7424,
      "Ġhex": 7425,
      "ĠGO": 7426,
      "Ġdescribes": 7427,
      "Ġneurode": 7428,
      "sk": 7429,
      "Ġpress": 7430,
      "ĠNorth": 7431,
      "Ġsuic": 7432,
      "Ġfruit": 7433,
      "Ġtyrosine": 7434,
      "Ġscatter": 7435,
      "plasia": 7436,
      "Ġincome": 7437,
      "Ġasc": 7438,
      "Ġchromosomes": 7439,
      "Ġarthritis": 7440,
      "Ġshare": 7441,
      "âĢī+": 7442,
      "Ġtemplate": 7443,
      "ATP": 7444,
      "Ġneither": 7445,
      "Ġmaps": 7446,
      "otrans": 7447,
      "Ġpersist": 7448,
      "opathological": 7449,
      "+/": 7450,
      "after": 7451,
      "veness": 7452,
      "Ġ67": 7453,
      "Ġincreasingly": 7454,
      "Ġtele": 7455,
      "Ġclimate": 7456,
      "versible": 7457,
      "Ġinfluences": 7458,
      "heses": 7459,
      "Ġlipoprotein": 7460,
      "Ġlens": 7461,
      "ĠEng": 7462,
      "eck": 7463,
      "ĠNon": 7464,
      "values": 7465,
      "engths": 7466,
      "Ġfocal": 7467,
      "Ġmaxim": 7468,
      "eb": 7469,
      "Ġconstructs": 7470,
      "adjusted": 7471,
      "abilitation": 7472,
      "ophila": 7473,
      "high": 7474,
      "hematic": 7475,
      "aterials": 7476,
      "Ġintegrity": 7477,
      "SV": 7478,
      "Ġprotease": 7479,
      "aden": 7480,
      "Ġexplanation": 7481,
      "Ġcyst": 7482,
      "portantly": 7483,
      "tors": 7484,
      "Ġbodies": 7485,
      "Ġresidents": 7486,
      "Ġbiomass": 7487,
      "Ġcartilage": 7488,
      "Ġscreened": 7489,
      "mer": 7490,
      "Ġvirt": 7491,
      "uctu": 7492,
      "Ġlarvae": 7493,
      "aceae": 7494,
      "Ġindices": 7495,
      "Ġupstream": 7496,
      "Ġhypoth": 7497,
      "acin": 7498,
      "Ġelectrodes": 7499,
      "Ġincom": 7500,
      "Ġchanging": 7501,
      "UD": 7502,
      "Ġamb": 7503,
      "Ġ61": 7504,
      "ĠTG": 7505,
      "Ġsinus": 7506,
      "Ġongoing": 7507,
      "Ġdecisions": 7508,
      "Ġtechnologies": 7509,
      "zyme": 7510,
      "lig": 7511,
      "Ġcongen": 7512,
      "defined": 7513,
      "Ġexists": 7514,
      "rophy": 7515,
      "Ġsymmet": 7516,
      "cepted": 7517,
      "Ġacetate": 7518,
      "alities": 7519,
      "Ġpredictions": 7520,
      "Ġneuron": 7521,
      "Ġ1996": 7522,
      "ceptions": 7523,
      "ocytic": 7524,
      "Ġcolony": 7525,
      "Ġspleen": 7526,
      "Ġlos": 7527,
      "ike": 7528,
      "Ġsound": 7529,
      "rozen": 7530,
      "yth": 7531,
      "Ġsubstance": 7532,
      "requency": 7533,
      "upp": 7534,
      "Ġaccom": 7535,
      "class": 7536,
      "Ġregeneration": 7537,
      "Ġsemi": 7538,
      "Ġtrim": 7539,
      "nel": 7540,
      "ĠInternational": 7541,
      "1000": 7542,
      "Ġattenuated": 7543,
      "Ġsuspected": 7544,
      "Ġfacilities": 7545,
      "Ġfundamental": 7546,
      "Ġsummarized": 7547,
      "right": 7548,
      "rete": 7549,
      "Ġregulator": 7550,
      "ĠÂµM": 7551,
      "Ġdrinking": 7552,
      "Ġclosed": 7553,
      "Ġpackage": 7554,
      "idopsis": 7555,
      "Âł6": 7556,
      "Ġinhibiting": 7557,
      "Ġpermeability": 7558,
      "Ġneighb": 7559,
      "Ġeffort": 7560,
      "itol": 7561,
      "Ġcorrelate": 7562,
      "arth": 7563,
      "Ġcalculation": 7564,
      "ĠAnalysis": 7565,
      "Ġmess": 7566,
      "osed": 7567,
      "size": 7568,
      "Ġaims": 7569,
      "from": 7570,
      "Ġdeb": 7571,
      "rophic": 7572,
      "Ġaug": 7573,
      "Ġthi": 7574,
      "Ġages": 7575,
      "arcoma": 7576,
      "Ġgranul": 7577,
      "ĠBrazil": 7578,
      "Ġconcomit": 7579,
      "Ġproportional": 7580,
      "FR": 7581,
      "Ġnit": 7582,
      "iae": 7583,
      "ĠSi": 7584,
      "Ġmicroarray": 7585,
      "Ġcomparative": 7586,
      "Ġleukemia": 7587,
      "hern": 7588,
      "Ġnutrient": 7589,
      "Ġtrees": 7590,
      "rought": 7591,
      "Ġutility": 7592,
      "tase": 7593,
      "Ġmell": 7594,
      "Ġreviews": 7595,
      "Ġblocking": 7596,
      "101": 7597,
      "Ġsimilarly": 7598,
      "Ġsor": 7599,
      "Ġ68": 7600,
      "Ġinternational": 7601,
      "Ġbulk": 7602,
      "Ġwithdraw": 7603,
      "Ġmoun": 7604,
      "Ġassign": 7605,
      "Ġforming": 7606,
      "Ġmaintaining": 7607,
      "Ġdeficits": 7608,
      "âĦ¢": 7609,
      "ĠNi": 7610,
      "OBJECTIVES": 7611,
      "Ġfrontal": 7612,
      "Ġresc": 7613,
      "Invitrogen": 7614,
      "Ġ66": 7615,
      "Ġrequiring": 7616,
      "Ġschizophrenia": 7617,
      "environ": 7618,
      "omon": 7619,
      "oprec": 7620,
      "Ġhearing": 7621,
      "Ġsequenced": 7622,
      "Ġfluctu": 7623,
      "ceptor": 7624,
      "Ġattempt": 7625,
      "Ġthems": 7626,
      "ulties": 7627,
      "otomy": 7628,
      "seq": 7629,
      "Ġsampled": 7630,
      "Ġelevation": 7631,
      "Ġfinancial": 7632,
      "Ġthemselves": 7633,
      "Ġranges": 7634,
      "enosis": 7635,
      "DC": 7636,
      "ought": 7637,
      "Ġantagonist": 7638,
      "Ġanesthesia": 7639,
      "Ġatoms": 7640,
      "rocytes": 7641,
      "ĠDecember": 7642,
      "Ġdiag": 7643,
      "unced": 7644,
      "Âłmm": 7645,
      "Ġagonist": 7646,
      "120": 7647,
      "Ġfatigue": 7648,
      "quito": 7649,
      "ĠDifferen": 7650,
      "Ġconstitu": 7651,
      "Ġpi": 7652,
      "Ġharb": 7653,
      "Ġautomatic": 7654,
      "âĢĿ,": 7655,
      "avi": 7656,
      "educ": 7657,
      "Ġgrain": 7658,
      "Ġsepsis": 7659,
      "Ġkeep": 7660,
      "Ġmol": 7661,
      "ptomatic": 7662,
      "iction": 7663,
      "ĠSW": 7664,
      "ĠEP": 7665,
      "Ġprevalent": 7666,
      "ura": 7667,
      "alled": 7668,
      "Ġdecades": 7669,
      "Ġtumours": 7670,
      "Ġreferr": 7671,
      "Ġ59": 7672,
      "auc": 7673,
      "Ġaccurately": 7674,
      "Ġderm": 7675,
      "Ġsupply": 7676,
      "Ġtranslocation": 7677,
      "Ġsteady": 7678,
      "Ġpreferred": 7679,
      "col": 7680,
      "inating": 7681,
      "ĠMG": 7682,
      "Ġadmitted": 7683,
      "Ġpara": 7684,
      "Ġhomolog": 7685,
      "Ġpreventing": 7686,
      "Ġlifest": 7687,
      "ĠTM": 7688,
      "Ġclassical": 7689,
      "Ġdriven": 7690,
      "Ġblind": 7691,
      "Ġsole": 7692,
      "Ġtransformed": 7693,
      "dri": 7694,
      "ĠBay": 7695,
      "thern": 7696,
      "Ġglomer": 7697,
      "hyth": 7698,
      "400": 7699,
      "Ġtip": 7700,
      "Ġinfiltration": 7701,
      "aemia": 7702,
      "Ġpredicting": 7703,
      "icking": 7704,
      "adian": 7705,
      "Ġvalve": 7706,
      "ryst": 7707,
      "Ġpathoph": 7708,
      "AST": 7709,
      ")(": 7710,
      "PK": 7711,
      "spring": 7712,
      "Ġvulner": 7713,
      "assium": 7714,
      "Ġdeliver": 7715,
      "ophosph": 7716,
      "catenin": 7717,
      "ĠMal": 7718,
      "Ġbowel": 7719,
      "Ġoverexp": 7720,
      "mp": 7721,
      "ĠSO": 7722,
      "Ġhomogene": 7723,
      "Ġclinicians": 7724,
      "Previous": 7725,
      "Gl": 7726,
      "onate": 7727,
      "ierarch": 7728,
      "Ġemerging": 7729,
      "Ġnormally": 7730,
      "Ġprincipal": 7731,
      "actor": 7732,
      "Ġcohorts": 7733,
      "Ġpreced": 7734,
      "Ġunable": 7735,
      "td": 7736,
      "amycin": 7737,
      "Ġspine": 7738,
      "Ġreading": 7739,
      "Ġangiogenesis": 7740,
      "Ġreplaced": 7741,
      "Ġformula": 7742,
      "ĠTE": 7743,
      "opes": 7744,
      "Inc": 7745,
      "Ġraised": 7746,
      "Ġquantify": 7747,
      "Ġstere": 7748,
      "umber": 7749,
      "Ġeasy": 7750,
      "then": 7751,
      "Ġweights": 7752,
      "Ġsystolic": 7753,
      "Ġtight": 7754,
      "Ġlamin": 7755,
      "Ġmetric": 7756,
      "porting": 7757,
      "Ġexclusion": 7758,
      "**": 7759,
      "âĢī2": 7760,
      "Ġviol": 7761,
      "Ġhighlighted": 7762,
      "aptic": 7763,
      "Ġraw": 7764,
      "ĠÎ¼l": 7765,
      "rowth": 7766,
      "ĠEurope": 7767,
      "Bio": 7768,
      "ĠTris": 7769,
      "Ġautoimmune": 7770,
      "Ġeosin": 7771,
      "Ġaddi": 7772,
      "Ġcarbohydr": 7773,
      "leukin": 7774,
      "ĠOA": 7775,
      "pG": 7776,
      "ower": 7777,
      "Ġcytotoxicity": 7778,
      "Ġdifficulty": 7779,
      "Ġexception": 7780,
      "PL": 7781,
      "ara": 7782,
      "Ġwalking": 7783,
      "estic": 7784,
      "Ġreflected": 7785,
      "ij": 7786,
      "ĠClinical": 7787,
      "Ġhydrophobic": 7788,
      "apor": 7789,
      "uly": 7790,
      "ĠBM": 7791,
      "Ġretin": 7792,
      "oon": 7793,
      "Ġanalytical": 7794,
      "ĠThree": 7795,
      "Ġneutrophils": 7796,
      "Be": 7797,
      "Ig": 7798,
      "Ġaspect": 7799,
      "clusion": 7800,
      "Ġmobile": 7801,
      "Ġmom": 7802,
      "ĠSigma": 7803,
      "Ġroots": 7804,
      "Ġzinc": 7805,
      "Ġprecision": 7806,
      "ĠERK": 7807,
      "Ġhippocampal": 7808,
      "Ġnull": 7809,
      "Ġpreference": 7810,
      "ĠNote": 7811,
      "Ġsimpl": 7812,
      "ĠStudent": 7813,
      "]âĢĵ": 7814,
      "Ġacts": 7815,
      "Ġtransplant": 7816,
      "ĠMethods": 7817,
      "Ġteeth": 7818,
      "ERIAL": 7819,
      "FI": 7820,
      "Ġsurviv": 7821,
      "Ġnutritional": 7822,
      "Ġmucosa": 7823,
      "Ġcolleag": 7824,
      "Ġaccepted": 7825,
      "ĠNPs": 7826,
      "Ġefficiently": 7827,
      "Ġinterference": 7828,
      "ĠFollowing": 7829,
      "Ġfilms": 7830,
      "Ġframe": 7831,
      "Ġanalges": 7832,
      "ochrome": 7833,
      "Ġcontamin": 7834,
      "âĢīÂµ": 7835,
      "Ġunex": 7836,
      "ĠArabidopsis": 7837,
      "rey": 7838,
      "outhern": 7839,
      "Ġxen": 7840,
      "Ġacetyl": 7841,
      "Ġcorrected": 7842,
      "Ġclaim": 7843,
      "Ġverified": 7844,
      "stimulated": 7845,
      "bular": 7846,
      "ĠHep": 7847,
      "Ġseek": 7848,
      "Ġapplying": 7849,
      "Ġsubcutaneous": 7850,
      "CSF": 7851,
      "PG": 7852,
      "Ġever": 7853,
      "TM": 7854,
      "rotein": 7855,
      "Ġleak": 7856,
      "Ġupd": 7857,
      "Ġcorresponds": 7858,
      "Ġideal": 7859,
      "Us": 7860,
      "field": 7861,
      "ette": 7862,
      "Ġupregulation": 7863,
      "Ġautom": 7864,
      "Ġaggressive": 7865,
      "onym": 7866,
      "Ġtransm": 7867,
      "Ġdepressive": 7868,
      "ĠCancer": 7869,
      "Ġphag": 7870,
      "Ġarteries": 7871,
      "Ġsubstitution": 7872,
      "Ġelectrophoresis": 7873,
      "ypt": 7874,
      "Ġmultic": 7875,
      "Ġfa": 7876,
      "Ġrhyth": 7877,
      "ysacchar": 7878,
      "Ġdetermin": 7879,
      "Ġcontributing": 7880,
      "Ġbiomarker": 7881,
      "NOS": 7882,
      "Ġposi": 7883,
      "Ġspp": 7884,
      "ograms": 7885,
      "ĠPO": 7886,
      "ĠHigh": 7887,
      "ĠStatistical": 7888,
      "aphyl": 7889,
      "changed": 7890,
      "Ġnasal": 7891,
      "ams": 7892,
      "Ġassessments": 7893,
      "Ġcomprised": 7894,
      "Cor": 7895,
      "ee": 7896,
      "ĠBC": 7897,
      "acterial": 7898,
      "isease": 7899,
      "including": 7900,
      "Ġdissolved": 7901,
      "length": 7902,
      "Ġimplantation": 7903,
      "Ġarrest": 7904,
      "Ġsynth": 7905,
      "]âĢĵ[": 7906,
      "haps": 7907,
      "Ġconsult": 7908,
      "Ġprevented": 7909,
      "ĠIndia": 7910,
      "otion": 7911,
      "aved": 7912,
      "hex": 7913,
      "ĠWnt": 7914,
      "Ġrotation": 7915,
      "Ġsynerg": 7916,
      "parison": 7917,
      "Ġlearn": 7918,
      "Ġla": 7919,
      "Ġdetecting": 7920,
      "Ġadipose": 7921,
      "mann": 7922,
      "oL": 7923,
      "Ġfinger": 7924,
      "Ġcaregi": 7925,
      "Ġyields": 7926,
      "Ġquick": 7927,
      "Ġscans": 7928,
      "Ġju": 7929,
      "osystems": 7930,
      "gel": 7931,
      "inates": 7932,
      "ĠMon": 7933,
      "TB": 7934,
      "Ġfine": 7935,
      "ĠKO": 7936,
      "Ġattached": 7937,
      "ĠÂµm": 7938,
      "two": 7939,
      "NI": 7940,
      "Ġglycos": 7941,
      "yte": 7942,
      "cephal": 7943,
      "Ġ1995": 7944,
      "Ġpropag": 7945,
      "rate": 7946,
      "Î´": 7947,
      "Ġbrief": 7948,
      "siveness": 7949,
      "Ġdifficulties": 7950,
      "Ġaneurys": 7951,
      "ĠCNS": 7952,
      "Ġsought": 7953,
      "Ġect": 7954,
      "0000": 7955,
      "Ġprelim": 7956,
      "Ġadopted": 7957,
      "independent": 7958,
      "Ġquestionnaires": 7959,
      "Ġsubgroups": 7960,
      "Ġmosquito": 7961,
      "Ġcolleagues": 7962,
      "sies": 7963,
      "Ġdye": 7964,
      "Ġauditory": 7965,
      "GR": 7966,
      "ĠMicro": 7967,
      "Ġprono": 7968,
      "Ġsugges": 7969,
      "Ġthreat": 7970,
      "Ġatrial": 7971,
      "ĠRO": 7972,
      "Ġlineage": 7973,
      "Ġpigs": 7974,
      "ĠFL": 7975,
      "GO": 7976,
      "PH": 7977,
      "ĠHC": 7978,
      "Ġvesicles": 7979,
      "Ġpronounced": 7980,
      "aled": 7981,
      "ĠDS": 7982,
      "Ġdiast": 7983,
      "Ġmodulate": 7984,
      "Ġcarrying": 7985,
      "Ġ94": 7986,
      "Ġsynchron": 7987,
      "Ġcardiomy": 7988,
      "pread": 7989,
      "âī¤": 7990,
      "Ġ98": 7991,
      "points": 7992,
      "Ġcomorbid": 7993,
      "irty": 7994,
      "ĠDN": 7995,
      "Ġexpressions": 7996,
      "Ġcumulative": 7997,
      "They": 7998,
      "Ġrelapse": 7999,
      "Ġclean": 8000,
      "Ġmacrophage": 8001,
      "Ġmetall": 8002,
      "idespread": 8003,
      "rist": 8004,
      "Ġchond": 8005,
      "ĠOverall": 8006,
      "elt": 8007,
      "sensitive": 8008,
      "atics": 8009,
      "Ġprominent": 8010,
      "ĠMDA": 8011,
      "Ġvirulence": 8012,
      "Ġprophyl": 8013,
      "INT": 8014,
      "ozo": 8015,
      "ĠTechnologies": 8016,
      "Ġeligible": 8017,
      "Ġlinkage": 8018,
      "Ġinnate": 8019,
      "Ġconformation": 8020,
      "ĠMB": 8021,
      "ypical": 8022,
      "Ġisolate": 8023,
      "Ġworse": 8024,
      "dL": 8025,
      "Ġresolved": 8026,
      "Ġblotting": 8027,
      "invasive": 8028,
      "heum": 8029,
      "Ġrule": 8030,
      "generative": 8031,
      "Ġmicrog": 8032,
      "Ġexcitation": 8033,
      "anes": 8034,
      "ĠPrim": 8035,
      "Ġformer": 8036,
      "According": 8037,
      "Ġmarket": 8038,
      "Ġsymptomatic": 8039,
      "acerb": 8040,
      "Ġisoforms": 8041,
      "Ġmellitus": 8042,
      "RD": 8043,
      "lution": 8044,
      "Ġovercome": 8045,
      "Ġreinf": 8046,
      "Ġeffector": 8047,
      "Ġproton": 8048,
      "Ġscenario": 8049,
      "igare": 8050,
      "Ġlabeling": 8051,
      "Ġscheme": 8052,
      "uits": 8053,
      "tized": 8054,
      "grade": 8055,
      "uity": 8056,
      "Ġdisruption": 8057,
      "Ġgradually": 8058,
      "ĠTA": 8059,
      "Ġdiscontin": 8060,
      "ections": 8061,
      "ĠMy": 8062,
      "Ġfemoral": 8063,
      "HL": 8064,
      "Ġsecreted": 8065,
      "Ġsensors": 8066,
      "Ġcandidates": 8067,
      "Ġillustrated": 8068,
      "Four": 8069,
      "Ġexer": 8070,
      "Ġinferior": 8071,
      "Ġulcer": 8072,
      "ultiple": 8073,
      "Ġphosphorylated": 8074,
      "green": 8075,
      "antic": 8076,
      "Ġcentrifugation": 8077,
      "Ġhorizontal": 8078,
      "ademic": 8079,
      "ĠParticipants": 8080,
      "Ġdescrip": 8081,
      "Ġsituations": 8082,
      "ĠÃħ": 8083,
      "MATERIAL": 8084,
      "edic": 8085,
      "vey": 8086,
      "Ġdispers": 8087,
      "Ġpix": 8088,
      "Ġstret": 8089,
      "ĠPark": 8090,
      "Ġjo": 8091,
      "Ġexceed": 8092,
      "Ġepisodes": 8093,
      "mosp": 8094,
      "Ġundert": 8095,
      "Ġremodeling": 8096,
      "Ġcasc": 8097,
      "Ġreadily": 8098,
      "Ġoptimized": 8099,
      "Ġrehabilitation": 8100,
      "retion": 8101,
      "veolar": 8102,
      "Ġchloride": 8103,
      "urgical": 8104,
      "Ġsquare": 8105,
      "Ġwidespread": 8106,
      "Ġsubjective": 8107,
      "Ġemerged": 8108,
      "Ġcentrifuged": 8109,
      "Ġdopamine": 8110,
      "plicate": 8111,
      "chemical": 8112,
      "resentative": 8113,
      "Ġhr": 8114,
      "Ġdistances": 8115,
      "ns": 8116,
      "Ġcann": 8117,
      "Ġhomogen": 8118,
      "ukary": 8119,
      "Ġult": 8120,
      "Ġpotassium": 8121,
      "125": 8122,
      "Ġpore": 8123,
      "asion": 8124,
      "Ġcolonies": 8125,
      "pop": 8126,
      "Ġanatomical": 8127,
      "olding": 8128,
      "Ġaligned": 8129,
      "ĠLD": 8130,
      "Ġfasting": 8131,
      "Ġmotifs": 8132,
      "Ġlapa": 8133,
      "meth": 8134,
      "Ġdehydrogen": 8135,
      "Ġselect": 8136,
      "idase": 8137,
      "ĠrRNA": 8138,
      "Ġinters": 8139,
      "Ġsubtype": 8140,
      "Ġventilation": 8141,
      "ference": 8142,
      "ĠHT": 8143,
      "Ġmodes": 8144,
      "Ġsometimes": 8145,
      "Ġoffspring": 8146,
      "ĠAC": 8147,
      "ror": 8148,
      "otyping": 8149,
      "mes": 8150,
      "Ġarom": 8151,
      "atible": 8152,
      "emat": 8153,
      "Ġinducing": 8154,
      "Ġfavorable": 8155,
      "Ġexacerb": 8156,
      "Ġequilibrium": 8157,
      "Ġbonds": 8158,
      "Ġinjections": 8159,
      "Ġmanual": 8160,
      "Ġlifestyle": 8161,
      "Ġproven": 8162,
      "Ġoptimization": 8163,
      "Ġvaccines": 8164,
      "Ġbelieved": 8165,
      "Ġstom": 8166,
      "Ġcontamination": 8167,
      "MSCs": 8168,
      "Ġsubstances": 8169,
      "ystic": 8170,
      "Ġintest": 8171,
      "Ġaberr": 8172,
      "Ġfacial": 8173,
      "amino": 8174,
      "Ġsurveys": 8175,
      "benz": 8176,
      "hene": 8177,
      "ĠHER": 8178,
      "EX": 8179,
      "Ġconce": 8180,
      "illi": 8181,
      "Ġrarely": 8182,
      "Ġcloned": 8183,
      "ques": 8184,
      "Ġadjuvant": 8185,
      "ĠItal": 8186,
      "ĠRNAs": 8187,
      "Ġreflects": 8188,
      "NG": 8189,
      "Ġoc": 8190,
      "Ġwaste": 8191,
      "tiviral": 8192,
      "ymer": 8193,
      "Ã¡": 8194,
      "Ġanomal": 8195,
      "Ġhous": 8196,
      "ĠGM": 8197,
      "Ġcontinue": 8198,
      "Ġglutamate": 8199,
      "Ġpreliminary": 8200,
      "Ġbon": 8201,
      "ĠTa": 8202,
      "Ġstiff": 8203,
      "anta": 8204,
      "ĠHO": 8205,
      "Ġacceptable": 8206,
      "arp": 8207,
      "Ġretained": 8208,
      "Ġammon": 8209,
      "Ġprotect": 8210,
      "Ġplaque": 8211,
      "Ġitem": 8212,
      "Ġconservation": 8213,
      "Ġreveals": 8214,
      "expressing": 8215,
      "conjug": 8216,
      "Ġencoded": 8217,
      "Ġidea": 8218,
      "rid": 8219,
      "Ġhttp": 8220,
      "Some": 8221,
      "Ġgrap": 8222,
      "Ġretro": 8223,
      "lings": 8224,
      "Ġmicrobiota": 8225,
      "Ġadenocarcinoma": 8226,
      "Ġperturb": 8227,
      "Ġwoman": 8228,
      "ĠHDL": 8229,
      "Ġapical": 8230,
      "Ġtransduction": 8231,
      "ĠHuman": 8232,
      "Ġparasites": 8233,
      "orth": 8234,
      "ĠEm": 8235,
      "king": 8236,
      "Ġinactivation": 8237,
      "Ġinserted": 8238,
      "Ġfeasible": 8239,
      "Ġiod": 8240,
      "Ġaid": 8241,
      "ĠInf": 8242,
      "Ġcomplementary": 8243,
      "tization": 8244,
      "alia": 8245,
      "ĠNR": 8246,
      "Ġassumption": 8247,
      "Ġbelieve": 8248,
      "GD": 8249,
      "Ġps": 8250,
      "Ġindust": 8251,
      "Ġconclusions": 8252,
      "Ġarchitecture": 8253,
      "150": 8254,
      "Ġ(-": 8255,
      "emographic": 8256,
      "Clinical": 8257,
      "Ġbrid": 8258,
      "Ġaz": 8259,
      "standing": 8260,
      "ief": 8261,
      "Ġexogenous": 8262,
      "Ġtib": 8263,
      "Ġadvances": 8264,
      "ĠĠĠĠĠĠĠĠĠĠĠĠĠĠĠĠ": 8265,
      "Ġreagent": 8266,
      "rele": 8267,
      "ysical": 8268,
      "Ġket": 8269,
      "ĠWHO": 8270,
      "expression": 8271,
      "PAGE": 8272,
      "Ġdiscovered": 8273,
      "urrently": 8274,
      "ĠAM": 8275,
      "Sm": 8276,
      "ards": 8277,
      "ĠRecently": 8278,
      "ipped": 8279,
      "Ġvital": 8280,
      "Ġoffers": 8281,
      "Ġpotentials": 8282,
      "Ġknockout": 8283,
      "Ġamyloid": 8284,
      "VI": 8285,
      "agulation": 8286,
      "Ġvisualized": 8287,
      "Ġpurposes": 8288,
      "ximately": 8289,
      "Ġprogramme": 8290,
      "Ġsulfate": 8291,
      "Ġmonol": 8292,
      "Ġsmokers": 8293,
      "ev": 8294,
      "enchymal": 8295,
      "Ġrev": 8296,
      "ĠHIF": 8297,
      "ĠNA": 8298,
      "Ġviable": 8299,
      "Ġfiltered": 8300,
      "Ġforest": 8301,
      "coding": 8302,
      "Ġbile": 8303,
      "antum": 8304,
      "ĠNeu": 8305,
      "Ġrough": 8306,
      "600": 8307,
      "ocomp": 8308,
      "ĠGABA": 8309,
      "Ġresting": 8310,
      "being": 8311,
      "ilic": 8312,
      "ĠEp": 8313,
      "Ġloaded": 8314,
      ",âĢĿ": 8315,
      "ĠOT": 8316,
      "Ġaccession": 8317,
      "factor": 8318,
      "Ġextensively": 8319,
      "Ġimmobil": 8320,
      "Ġreper": 8321,
      "Ġconj": 8322,
      "ĠAu": 8323,
      "etin": 8324,
      "Ġsomatic": 8325,
      "Ġstent": 8326,
      "otechn": 8327,
      "ichia": 8328,
      "Ġadapted": 8329,
      "Ġincorporated": 8330,
      "enh": 8331,
      "Ġmapped": 8332,
      "Ġexcessive": 8333,
      "ĠMay": 8334,
      "Ġchol": 8335,
      "ĠART": 8336,
      "Ġphyt": 8337,
      "Ġrow": 8338,
      "rosophila": 8339,
      "Ġroute": 8340,
      "kelet": 8341,
      "Ġincorporation": 8342,
      "DG": 8343,
      "icture": 8344,
      "ĠType": 8345,
      "Ġatmosp": 8346,
      "Ġimpacts": 8347,
      "ĠGI": 8348,
      "Ġattachment": 8349,
      "reme": 8350,
      "omeric": 8351,
      "yses": 8352,
      "ĠET": 8353,
      "Ġfarm": 8354,
      "ĠEEG": 8355,
      "Ġdiffuse": 8356,
      "Ġplasmids": 8357,
      "Ġkinases": 8358,
      "Ġsynthase": 8359,
      "non": 8360,
      "Ġforces": 8361,
      "Ġsustain": 8362,
      "Ġancest": 8363,
      "geal": 8364,
      "reased": 8365,
      "Ġpresum": 8366,
      "Ġcarriers": 8367,
      "erge": 8368,
      "Ġeukary": 8369,
      "Ġembryo": 8370,
      "ker": 8371,
      "Ġcir": 8372,
      "Ġlnc": 8373,
      "Ġcomprom": 8374,
      "Ġexpon": 8375,
      "ĠkDa": 8376,
      "âĢĻ,": 8377,
      "Ġdiscrimination": 8378,
      "idi": 8379,
      "Ġmediate": 8380,
      "Ġcopper": 8381,
      "Ġopportunity": 8382,
      "HI": 8383,
      "fil": 8384,
      "Ġdried": 8385,
      "Ġseeds": 8386,
      "Ġmask": 8387,
      "ĠDet": 8388,
      "rosp": 8389,
      "ĠGR": 8390,
      "Ġethyl": 8391,
      "Ġcompliance": 8392,
      "Ġharm": 8393,
      "Ġapproval": 8394,
      "Ġhospitalization": 8395,
      "Ġcriterion": 8396,
      "brain": 8397,
      "iples": 8398,
      "step": 8399,
      "Ġcomplicated": 8400,
      "Ġsolub": 8401,
      "Ġaccounted": 8402,
      "Ġgives": 8403,
      "ĠEqu": 8404,
      "ĠAnti": 8405,
      "Ġpilot": 8406,
      "osci": 8407,
      "response": 8408,
      "acetyl": 8409,
      "Ġrelaxation": 8410,
      "Reg": 8411,
      "Ġtooth": 8412,
      "Ġquar": 8413,
      "Ġcirculation": 8414,
      "Ġconsiderably": 8415,
      "pe": 8416,
      "through": 8417,
      "adher": 8418,
      "Ġtriple": 8419,
      "likely": 8420,
      "Ġcoc": 8421,
      "ascul": 8422,
      "Ġbranch": 8423,
      "Ġexpanded": 8424,
      "Ġgirls": 8425,
      "Ġ$": 8426,
      "ĠFl": 8427,
      "ĠLA": 8428,
      "Ġphosphatase": 8429,
      "wards": 8430,
      "Ġspecimen": 8431,
      "Ġjunction": 8432,
      "Ġcarotid": 8433,
      "Ġcongenital": 8434,
      "platin": 8435,
      "OF": 8436,
      "Ġ97": 8437,
      "Ġhierarch": 8438,
      "ĠLT": 8439,
      "Ġmotility": 8440,
      "Ġtoxin": 8441,
      "ni": 8442,
      "coprotein": 8443,
      "Ġbiofilm": 8444,
      "Ġna": 8445,
      "Ġmonocytes": 8446,
      "Ġconcomitant": 8447,
      "ools": 8448,
      "Ġpup": 8449,
      "ensin": 8450,
      "Ġwet": 8451,
      "Ġ78": 8452,
      "Ġfrozen": 8453,
      "ĠIS": 8454,
      "ildren": 8455,
      "iable": 8456,
      "ĠEV": 8457,
      "Ġtubes": 8458,
      "Ġstenosis": 8459,
      "ublic": 8460,
      "Ġfiltr": 8461,
      "Ġcataly": 8462,
      "disc": 8463,
      "Ġpay": 8464,
      "ocking": 8465,
      "Ġvideo": 8466,
      "ĠMn": 8467,
      "Ġdisapp": 8468,
      "Ġboundary": 8469,
      "ĠMM": 8470,
      "blue": 8471,
      "Ġmucosal": 8472,
      "Ġepigenetic": 8473,
      "Ġnewborn": 8474,
      "umbar": 8475,
      "+-": 8476,
      "do": 8477,
      "Ġvolunteers": 8478,
      "Ġcond": 8479,
      "Ġbeads": 8480,
      "loaded": 8481,
      "Ġord": 8482,
      "Ġelect": 8483,
      "Ġglycer": 8484,
      "Ġpromoted": 8485,
      "Ġembedded": 8486,
      "Ġconverted": 8487,
      "Ġsplicing": 8488,
      "Ġcaptured": 8489,
      "Recent": 8490,
      "Ġfeasibility": 8491,
      "Ġ71": 8492,
      "ĠDMSO": 8493,
      "Ġdistress": 8494,
      "Cons": 8495,
      "ocated": 8496,
      "Ġinterpreted": 8497,
      "ĠBcl": 8498,
      "transferase": 8499,
      "Ġexperimentally": 8500,
      "grad": 8501,
      "unt": 8502,
      "Ġpractition": 8503,
      "Ġempirical": 8504,
      "Ġfo": 8505,
      "affec": 8506,
      "ulsion": 8507,
      "ĠmRNAs": 8508,
      "Ġstimulate": 8509,
      "Ġasymptomatic": 8510,
      "aryngeal": 8511,
      "Ġagar": 8512,
      "Ġhypertroph": 8513,
      "Ġdiscrep": 8514,
      "Ġmatching": 8515,
      "Ġsilencing": 8516,
      "ĠStudies": 8517,
      "pre": 8518,
      "asic": 8519,
      "Ġventral": 8520,
      "Ġrequirement": 8521,
      "Ġspor": 8522,
      "Ġball": 8523,
      "ospor": 8524,
      "Ġstated": 8525,
      "ĠGA": 8526,
      "ivariate": 8527,
      "Ġsucrose": 8528,
      "Ġplacement": 8529,
      "Ġaway": 8530,
      "ĠChem": 8531,
      "ubation": 8532,
      "Ġnutrition": 8533,
      "ĠCG": 8534,
      "avail": 8535,
      "Ġgreatest": 8536,
      "ger": 8537,
      "Ġcontro": 8538,
      "Ġwt": 8539,
      "ĠTreg": 8540,
      "Ġablation": 8541,
      "Ġ69": 8542,
      "Ġhomologous": 8543,
      "rhyth": 8544,
      "ĠICU": 8545,
      "CB": 8546,
      "De": 8547,
      "Ġdrawn": 8548,
      "Ġartificial": 8549,
      "Ġuncertainty": 8550,
      "Ġvision": 8551,
      "Ġexhibits": 8552,
      "Ġfoods": 8553,
      "Ġfinally": 8554,
      "Ġinsufficient": 8555,
      "ham": 8556,
      "ĠRR": 8557,
      "450": 8558,
      "Ġsham": 8559,
      "ĠFI": 8560,
      "Ġtendency": 8561,
      "usting": 8562,
      "Ġmethanol": 8563,
      "Ġtrait": 8564,
      "scher": 8565,
      "appa": 8566,
      "Ġtakes": 8567,
      "Ġtrigger": 8568,
      "ĠMAPK": 8569,
      "Ġechocardi": 8570,
      "Ã¶": 8571,
      "ĠStr": 8572,
      "Ġusage": 8573,
      "FL": 8574,
      "aste": 8575,
      "emble": 8576,
      "Ġestrogen": 8577,
      "Ġdehydrogenase": 8578,
      "Ġdemand": 8579,
      "Ġcalibration": 8580,
      "hydrox": 8581,
      "Ġreactivity": 8582,
      "Ġwheat": 8583,
      "Ġgray": 8584,
      "Ġlungs": 8585,
      "ampl": 8586,
      "quin": 8587,
      "Ġenables": 8588,
      "âĢī3": 8589,
      "Ġpreferen": 8590,
      "Six": 8591,
      "Ġselectivity": 8592,
      "Ġ1990": 8593,
      "Ġmalignancy": 8594,
      "Ġreversed": 8595,
      "Spec": 8596,
      "drug": 8597,
      "ĠTotal": 8598,
      "Ġdifferentiate": 8599,
      "Ġplotted": 8600,
      "Ġenl": 8601,
      "Ġscar": 8602,
      "Ġfeel": 8603,
      "oblot": 8604,
      "Ġconflict": 8605,
      "human": 8606,
      "Ġcarrier": 8607,
      "âĢ¯=": 8608,
      "Ġcorneal": 8609,
      "aceutical": 8610,
      "Ġshifts": 8611,
      "ĠSwed": 8612,
      "omere": 8613,
      "Ġplasticity": 8614,
      "Ġclone": 8615,
      "Ġregimens": 8616,
      "Ġcool": 8617,
      "Ġconstruction": 8618,
      "Ġcutoff": 8619,
      "ĠTH": 8620,
      "Ġscored": 8621,
      "athione": 8622,
      "Ġinvestigating": 8623,
      "asma": 8624,
      "Ġproduces": 8625,
      "Ġgangl": 8626,
      "Ġexplo": 8627,
      "Ġoverweight": 8628,
      "oplastic": 8629,
      "lectric": 8630,
      "Ġepidemiological": 8631,
      "tes": 8632,
      "Ġdownregulated": 8633,
      "cepts": 8634,
      "Ġsilic": 8635,
      "ĠDepartment": 8636,
      "Ġdialysis": 8637,
      "Ġtension": 8638,
      "Ġhapp": 8639,
      "ĠDue": 8640,
      "ĠDrosophila": 8641,
      "Ġunlikely": 8642,
      "Trans": 8643,
      "Ġconfocal": 8644,
      "ĠSyn": 8645,
      "Ġcorrelates": 8646,
      "Ġbreeding": 8647,
      "Ġpreparations": 8648,
      "Ġcodon": 8649,
      "Ġpretreatment": 8650,
      "Ġlept": 8651,
      "Ġdiagnoses": 8652,
      "omonas": 8653,
      "ĠHg": 8654,
      "Âłg": 8655,
      "ariable": 8656,
      "ultural": 8657,
      "Ġimmunore": 8658,
      "ACS": 8659,
      "Ġlimiting": 8660,
      "Ġreinfor": 8661,
      "TNF": 8662,
      "ĠSN": 8663,
      "Ġaveraged": 8664,
      "erating": 8665,
      "Ġluciferase": 8666,
      "earson": 8667,
      "Ġjour": 8668,
      "Ġastrocytes": 8669,
      "Ġbelief": 8670,
      "Ġkinetic": 8671,
      "Ġhemorrhage": 8672,
      "Ġhind": 8673,
      "Ġstrict": 8674,
      "Ġ76": 8675,
      "Ġproperty": 8676,
      "Ġeating": 8677,
      "Met": 8678,
      "erves": 8679,
      "Ġindeed": 8680,
      "Ġunf": 8681,
      "Ġunchanged": 8682,
      "adherin": 8683,
      "Ġbip": 8684,
      "amous": 8685,
      "ĠAV": 8686,
      "Ġinfer": 8687,
      "ycline": 8688,
      "Ġcombining": 8689,
      "Ġsymb": 8690,
      "Ġrear": 8691,
      "Ġcompression": 8692,
      "Ġ73": 8693,
      "Ġguidance": 8694,
      "hea": 8695,
      "ĠDis": 8696,
      "Ġapply": 8697,
      "affin": 8698,
      "Ġburn": 8699,
      "Ġhar": 8700,
      "oted": 8701,
      "ĠWorld": 8702,
      "thetic": 8703,
      "Ġdendritic": 8704,
      "idin": 8705,
      "ocon": 8706,
      "ĠMCF": 8707,
      "ĠRel": 8708,
      "Ġcounted": 8709,
      "Ġdisplacement": 8710,
      "Ġchromosomal": 8711,
      "Ġabuse": 8712,
      "Ġimproves": 8713,
      "infection": 8714,
      "ING": 8715,
      "Ġbuilding": 8716,
      "Ġexclusively": 8717,
      "oglyc": 8718,
      "ĠNT": 8719,
      "Ġtrunc": 8720,
      "ietic": 8721,
      "Ġflat": 8722,
      "antitative": 8723,
      "Ġeggs": 8724,
      "lined": 8725,
      "Ġdent": 8726,
      "Ġmodule": 8727,
      "scherichia": 8728,
      "Ġing": 8729,
      "Ġsept": 8730,
      "Ġmono": 8731,
      "Ġdosage": 8732,
      "ĠMedicine": 8733,
      "ĠMC": 8734,
      "adren": 8735,
      "Ġdriving": 8736,
      "ĠEnglish": 8737,
      "110": 8738,
      "Ġminimize": 8739,
      "Ġswitch": 8740,
      "Ġprescribed": 8741,
      "Ġorganism": 8742,
      "Ġbud": 8743,
      "versi": 8744,
      "Ġmening": 8745,
      "ĠMany": 8746,
      "Ġhepar": 8747,
      "ĠNI": 8748,
      "Ġdimer": 8749,
      "Ġpunc": 8750,
      "ĠMan": 8751,
      "Ġsugar": 8752,
      "Ġecological": 8753,
      "Ġintestine": 8754,
      "Ġscoring": 8755,
      "Ġexaminations": 8756,
      "Ġdepartment": 8757,
      "Ġneedle": 8758,
      "Ġactually": 8759,
      "Ġundertaken": 8760,
      "Ġsera": 8761,
      "Ġcopies": 8762,
      "Ġhydrolysis": 8763,
      "Ġconfiguration": 8764,
      "rous": 8765,
      "Ġcouns": 8766,
      "ĠUnder": 8767,
      "Ġpapers": 8768,
      "Ġbelonging": 8769,
      "alam": 8770,
      "aker": 8771,
      "ophilic": 8772,
      "Ġspeech": 8773,
      "Many": 8774,
      "rus": 8775,
      "Ġpump": 8776,
      "oming": 8777,
      "Ġobjec": 8778,
      "family": 8779,
      "enal": 8780,
      "ĠFT": 8781,
      "ĠGL": 8782,
      "Ġinterleukin": 8783,
      "Ġinstability": 8784,
      "ĠAustralia": 8785,
      "If": 8786,
      "SL": 8787,
      "Twenty": 8788,
      "ĠCE": 8789,
      "ĠGH": 8790,
      "environment": 8791,
      "Ġrace": 8792,
      "ĠEl": 8793,
      "Ġ74": 8794,
      "PO": 8795,
      "Ġobjects": 8796,
      "ÂłmM": 8797,
      "py": 8798,
      "Ġpyl": 8799,
      "Ġreductions": 8800,
      "Ġcoordination": 8801,
      "Ġcontacts": 8802,
      "ĠNE": 8803,
      "ĠOrgan": 8804,
      "idering": 8805,
      "Ġoutpatient": 8806,
      "Ġfacility": 8807,
      "Ġscience": 8808,
      "Ġrecipients": 8809,
      "ĠCRP": 8810,
      "ĠMV": 8811,
      "Ġexamining": 8812,
      "Ġequally": 8813,
      "Qu": 8814,
      "bes": 8815,
      "ĠSan": 8816,
      "ĠMHC": 8817,
      "Ġplas": 8818,
      "Ġedema": 8819,
      "iasis": 8820,
      "Ġretic": 8821,
      "istrib": 8822,
      "phenyl": 8823,
      "inder": 8824,
      "Ġhold": 8825,
      "etween": 8826,
      "ifier": 8827,
      "Ġ84": 8828,
      "Ġremission": 8829,
      "ustry": 8830,
      "ĠMSCs": 8831,
      "Ġprinciples": 8832,
      "functional": 8833,
      "Ġdisper": 8834,
      "Ġquantum": 8835,
      "Seq": 8836,
      "NM": 8837,
      "cyc": 8838,
      "nia": 8839,
      "arum": 8840,
      "Ġformulation": 8841,
      "conjugated": 8842,
      "Ġconsistency": 8843,
      "Ġprivate": 8844,
      "Ġattitudes": 8845,
      "heimer": 8846,
      "Ġacademic": 8847,
      "ala": 8848,
      "iments": 8849,
      "ĠMann": 8850,
      "esting": 8851,
      "Ġstudying": 8852,
      "Ġendoscopic": 8853,
      "effective": 8854,
      "Tr": 8855,
      "ora": 8856,
      "unctions": 8857,
      "Ġhemoglobin": 8858,
      "GL": 8859,
      "Ġcreatinine": 8860,
      "Ġstream": 8861,
      "ĠHBV": 8862,
      "Ġinten": 8863,
      "Ġcontributions": 8864,
      "Ġbirds": 8865,
      "Ġepilepsy": 8866,
      "Ġgram": 8867,
      "Ġexplicit": 8868,
      "Ġrup": 8869,
      "Ġactivating": 8870,
      "etus": 8871,
      "Ġtriglycer": 8872,
      "Ġinhal": 8873,
      "ĠASD": 8874,
      "Ġsensing": 8875,
      "Ġvaginal": 8876,
      "Ġgal": 8877,
      "Ġdegeneration": 8878,
      "Ġseeded": 8879,
      "Ġlactate": 8880,
      "ovi": 8881,
      "umina": 8882,
      "Ġlaw": 8883,
      "Ġdivision": 8884,
      "plex": 8885,
      "Ġ88": 8886,
      "Ġdiagram": 8887,
      "keleton": 8888,
      "Ġstation": 8889,
      "Ġdev": 8890,
      "uge": 8891,
      "Ġoligonucle": 8892,
      "ifferenti": 8893,
      "Ġcirrh": 8894,
      "Ġnight": 8895,
      "Ġcompletion": 8896,
      "miR": 8897,
      "acryl": 8898,
      "âĢī>": 8899,
      "Ġmetabolite": 8900,
      "head": 8901,
      "ĠSPSS": 8902,
      "Ġdoub": 8903,
      "Ġcust": 8904,
      "relation": 8905,
      "opoietic": 8906,
      "Ġfilled": 8907,
      "Ġborder": 8908,
      "ologist": 8909,
      "ĠJune": 8910,
      "rant": 8911,
      "Ġcoated": 8912,
      "Ġdro": 8913,
      "ĠMc": 8914,
      "Col": 8915,
      "Ġspot": 8916,
      "ometh": 8917,
      "Ġsubs": 8918,
      "Ġphospholip": 8919,
      "ĠIndex": 8920,
      "Ġaort": 8921,
      "Ġstock": 8922,
      "CTs": 8923,
      "ventive": 8924,
      "Ġenhancing": 8925,
      "Inter": 8926,
      "Ġ77": 8927,
      "lycemia": 8928,
      "ĠPa": 8929,
      "Ġhomology": 8930,
      "ensor": 8931,
      "Ġextreme": 8932,
      "Ġcompartment": 8933,
      "ĠmTOR": 8934,
      "Ġlysis": 8935,
      "Ġprinciple": 8936,
      "yb": 8937,
      "reed": 8938,
      "ugin": 8939,
      "Ġ92": 8940,
      "Ġlysates": 8941,
      "obacteria": 8942,
      "Ġelimination": 8943,
      "ĠCanada": 8944,
      "Compared": 8945,
      "ographical": 8946,
      "Ġquantity": 8947,
      "Ġmicrotub": 8948,
      "Ġpurification": 8949,
      "Ġproportions": 8950,
      "Ġreaching": 8951,
      "ĠNSCLC": 8952,
      "ĠSpecifically": 8953,
      "Ġcamera": 8954,
      "ĠImportantly": 8955,
      "Ġpall": 8956,
      "uron": 8957,
      "âĢīg": 8958,
      "Ġrunning": 8959,
      "Ġsteroid": 8960,
      "zheimer": 8961,
      "105": 8962,
      "Ġocclusion": 8963,
      "rical": 8964,
      "Ġthresholds": 8965,
      "lit": 8966,
      "left": 8967,
      "Ġdefense": 8968,
      "Ġ1994": 8969,
      "Ġgoals": 8970,
      "Ġpanels": 8971,
      ".).": 8972,
      "Ġequations": 8973,
      "Ġdeterminants": 8974,
      "alc": 8975,
      "aper": 8976,
      "ĠOD": 8977,
      "Ġmicroorgan": 8978,
      "Ġobservational": 8979,
      "Additionally": 8980,
      "Ġubiquit": 8981,
      "Ġbic": 8982,
      "ĠIM": 8983,
      "Ġorb": 8984,
      "Ġmodern": 8985,
      "Ġsuperv": 8986,
      "Ġserved": 8987,
      "High": 8988,
      "ĠAUC": 8989,
      "rile": 8990,
      "partic": 8991,
      "Ġequip": 8992,
      "Ġslope": 8993,
      "ĠJapanese": 8994,
      "Ġconstraints": 8995,
      "Ġ79": 8996,
      "Ġ83": 8997,
      "Ġsecret": 8998,
      "Ġparticipating": 8999,
      "Ġgall": 9000,
      "apop": 9001,
      "ĠLtd": 9002,
      "Ġcapillary": 9003,
      "Ġcompetition": 9004,
      "Ġsurvivors": 9005,
      "omestic": 9006,
      "ofl": 9007,
      "Ġobstruction": 9008,
      "Ġwavelength": 9009,
      "odal": 9010,
      "izumab": 9011,
      "cha": 9012,
      "weighted": 9013,
      "Ġdissem": 9014,
      "ITC": 9015,
      "Ġultimately": 9016,
      "ĠSoci": 9017,
      "Ġindication": 9018,
      "ĠAnimal": 9019,
      "Ġtaxa": 9020,
      "Ġmt": 9021,
      "âĢĿ.": 9022,
      "Ġethical": 9023,
      "SEM": 9024,
      "cr": 9025,
      "ĠSB": 9026,
      "ographs": 9027,
      "Ġredox": 9028,
      "Ġfitted": 9029,
      "Ġpharmacokine": 9030,
      "Immun": 9031,
      "Ġregistered": 9032,
      "urrents": 9033,
      "Ġadvance": 9034,
      "Na": 9035,
      "raight": 9036,
      "ĠBut": 9037,
      "Ġunivers": 9038,
      "Ġ82": 9039,
      "ĠmicroM": 9040,
      "ĠConsequently": 9041,
      "Ġapplicable": 9042,
      "Ġdigestion": 9043,
      "tent": 9044,
      "Ġ87": 9045,
      "Ġpowerful": 9046,
      "âĢ¦": 9047,
      "tensive": 9048,
      "Ġslides": 9049,
      "Ġmachine": 9050,
      "ixed": 9051,
      "ĠZe": 9052,
      "urgery": 9053,
      "Ġmanifestations": 9054,
      "ĠEven": 9055,
      "uscular": 9056,
      "Ġosteop": 9057,
      "Ġfungi": 9058,
      "Ġ86": 9059,
      "Ġvalidate": 9060,
      "what": 9061,
      "Ġmargin": 9062,
      "Br": 9063,
      "Ġinver": 9064,
      "Ġvaries": 9065,
      "ĠRF": 9066,
      "Ġdistant": 9067,
      "Ġdiastolic": 9068,
      "Ġcoating": 9069,
      "Ġfibrin": 9070,
      "aters": 9071,
      "aven": 9072,
      "Ġdeterior": 9073,
      "Ġcausal": 9074,
      "ysiology": 9075,
      "shaped": 9076,
      "Ġautomated": 9077,
      "Ġincons": 9078,
      "Ġsimply": 9079,
      "Ġspent": 9080,
      "avirus": 9081,
      "which": 9082,
      "affected": 9083,
      "acillus": 9084,
      "Ġlif": 9085,
      "ĠSim": 9086,
      "anger": 9087,
      "rangement": 9088,
      "Participants": 9089,
      "ĠLa": 9090,
      "Ġclosure": 9091,
      "ĠAsian": 9092,
      "Ġimmunofluorescence": 9093,
      "ograft": 9094,
      "ĠRV": 9095,
      "Ġfocusing": 9096,
      "Ġadapt": 9097,
      "Ġmicroglia": 9098,
      "Ġmatch": 9099,
      "eterm": 9100,
      "Ġdex": 9101,
      "adic": 9102,
      "Ġperman": 9103,
      "Ġjob": 9104,
      "Ġdepri": 9105,
      "Ġbiopsies": 9106,
      "Ġimmunohistochemistry": 9107,
      "density": 9108,
      "Ġcues": 9109,
      "termin": 9110,
      "Ġcontraction": 9111,
      "âĢīÎ¼g": 9112,
      "Ġlobe": 9113,
      "while": 9114,
      "Ġincident": 9115,
      "ĠRed": 9116,
      "Ġarg": 9117,
      "Ġdrive": 9118,
      "Ġbinary": 9119,
      "ĠShe": 9120,
      "ĠGram": 9121,
      "Ġsubsets": 9122,
      "Ġelucidate": 9123,
      "unately": 9124,
      "Ġvic": 9125,
      "Ġelse": 9126,
      "Ġpercentages": 9127,
      "ĠBayes": 9128,
      "Ġreasonable": 9129,
      "top": 9130,
      "oses": 9131,
      "Ġtransporter": 9132,
      "Ġisot": 9133,
      "adequ": 9134,
      "Ġetiology": 9135,
      "Ġmoment": 9136,
[...]
